<unk>	0
<s>	0
</s>	0
▁the	-3.32206
.	-3.36725
▁to	-3.8533
▁a	-3.87342
s	-3.92792
▁of	-4.05996
▁in	-4.06058
▁and	-4.40508
-	-4.42625
▁on	-4.59374
▁for	-4.71416
▁#	-4.81217
39	-4.85625
▁-	-4.95109
▁(	-4.95587
)	-4.98168
ing	-5.05834
▁s	-5.06736
ed	-5.23561
'	-5.24536
▁that	-5.31068
▁with	-5.35973
▁at	-5.42639
▁as	-5.49616
▁is	-5.54148
▁new	-5.55632
▁	-5.57024
▁its	-5.57171
▁it	-5.60272
▁by	-5.60638
▁said	-5.64062
▁has	-5.69649
▁from	-5.77078
▁an	-5.79391
&	-5.83584
:	-5.84575
▁be	-5.93204
▁his	-5.94473
reuters	-5.94528
▁will	-5.95602
▁after	-5.97092
▁was	-6.02536
lt	-6.03871
gt	-6.06184
▁us	-6.07568
d	-6.1692
▁over	-6.17924
▁have	-6.23155
▁their	-6.29547
▁up	-6.29917
▁two	-6.3317
▁u	-6.35134
▁first	-6.36635
▁are	-6.36709
▁quot	-6.37062
▁&	-6.38317
▁he	-6.39484
/	-6.4012
▁but	-6.42969
▁more	-6.43278
ap	-6.46011
▁world	-6.47411
n	-6.48932
a	-6.49756
=	-6.52913
▁this	-6.54018
▁one	-6.55805
▁ap	-6.58412
▁company	-6.60629
▁out	-6.60837
▁monday	-6.61933
▁oil	-6.62825
▁not	-6.6299
▁wednesday	-6.63042
▁--	-6.63575
▁tuesday	-6.63961
▁thursday	-6.6561
ly	-6.66445
y	-6.67529
▁inc	-6.71433
▁against	-6.71821
▁friday	-6.72196
▁year	-6.74654
▁into	-6.75477
▁who	-6.75878
▁last	-6.75964
▁/	-6.76617
▁about	-6.79201
▁iraq	-6.80027
▁york	-6.8038
▁than	-6.81431
▁no	-6.81841
▁they	-6.8217
▁yesterday	-6.83862
b	-6.84453
▁three	-6.85896
▁president	-6.85957
▁microsoft	-6.86836
▁were	-6.8881
e	-6.89456
▁million	-6.90803
t	-6.9271
▁been	-6.9392
▁week	-6.95138
▁game	-6.97258
▁had	-6.97563
er	-6.97795
▁says	-6.98253
▁corp	-6.99362
com	-7.00971
▁united	-7.0167
▁when	-7.02884
▁sunday	-7.04953
▁back	-7.05659
▁government	-7.05719
▁time	-7.06079
▁prices	-7.06646
▁could	-7.06899
o	-7.07028
▁group	-7.07398
▁would	-7.07412
▁security	-7.09264
▁people	-7.10148
▁today	-7.10166
▁t	-7.10392
▁may	-7.12092
▁second	-7.12422
▁which	-7.12777
▁years	-7.12857
▁all	-7.15116
▁percent	-7.15272
▁software	-7.15589
▁team	-7.15844
▁win	-7.16021
▁next	-7.16842
▁b	-7.16923
▁reuters	-7.16994
▁off	-7.17443
▁...	-7.1756
▁lead	-7.18198
▁can	-7.20005
▁season	-7.21109
▁third	-7.21535
▁or	-7.23083
▁un	-7.24275
▁saturday	-7.24429
▁internet	-7.24533
▁night	-7.24704
▁china	-7.27043
▁top	-7.28
m	-7.28368
▁state	-7.28542
▁open	-7.28722
▁take	-7.28874
▁deal	-7.28965
▁market	-7.29768
▁minister	-7.31008
▁some	-7.31952
▁down	-7.3278
▁sales	-7.33042
▁high	-7.33556
▁four	-7.33707
▁bush	-7.35086
fullquote	-7.36178
▁record	-7.36637
▁day	-7.37197
▁washington	-7.37214
▁most	-7.38025
▁billion	-7.38726
▁business	-7.39302
▁international	-7.40547
▁former	-7.41329
▁announced	-7.4145
▁end	-7.44234
▁killed	-7.44326
year	-7.45064
▁profit	-7.45156
▁report	-7.45316
▁court	-7.45375
▁home	-7.46212
▁victory	-7.47964
▁city	-7.48729
▁co	-7.48892
▁officials	-7.49353
▁service	-7.50513
▁set	-7.51112
▁other	-7.51138
▁european	-7.51769
▁d	-7.51846
▁stocks	-7.52055
▁if	-7.52081
▁plans	-7.52341
▁news	-7.52701
▁2004	-7.52861
▁you	-7.53471
▁chief	-7.53765
▁al	-7.54278
▁before	-7.549
▁san	-7.5516
▁h	-7.5527
▁states	-7.5543
▁computer	-7.5699
▁technology	-7.57293
▁search	-7.57293
▁league	-7.57615
▁target	-7.57741
▁american	-7.58091
...	-7.58145
▁cup	-7.58635
▁talks	-7.59718
▁just	-7.59897
▁country	-7.59917
▁red	-7.61748
▁2	-7.61952
▁national	-7.62541
▁online	-7.6285
▁what	-7.63398
▁five	-7.63815
th	-7.63872
▁space	-7.64255
▁now	-7.64342
▁bank	-7.6503
▁british	-7.65525
▁i	-7.65987
▁reported	-7.6627
▁prime	-7.66481
▁network	-7.6681
▁india	-7.66811
▁major	-7.67122
▁make	-7.67179
▁federal	-7.68032
▁shares	-7.68127
▁japan	-7.68178
▁won	-7.6824
▁web	-7.68481
▁south	-7.68587
▁10	-7.69004
▁google	-7.69028
▁police	-7.70581
▁least	-7.70801
▁iraqi	-7.71377
▁help	-7.71522
▁another	-7.72334
▁research	-7.72337
▁get	-7.72368
▁final	-7.72548
afp	-7.72666
▁war	-7.73018
▁ibm	-7.73145
▁bid	-7.73187
▁long	-7.73229
▁leader	-7.73748
▁month	-7.7378
▁music	-7.73806
▁according	-7.73932
▁maker	-7.74231
▁plan	-7.74448
▁hit	-7.74646
▁made	-7.75006
▁e	-7.75199
▁companies	-7.7543
▁under	-7.75566
▁big	-7.75801
▁while	-7.76873
▁say	-7.76944
▁during	-7.7734
▁coach	-7.77453
▁london	-7.77662
ticker	-7.77901
▁mobile	-7.78309
▁between	-7.79175
▁still	-7.79221
▁quarter	-7.79228
▁there	-7.79422
▁election	-7.79441
▁series	-7.79778
▁largest	-7.79835
▁industry	-7.80073
▁so	-7.81036
▁games	-7.81071
▁baghdad	-7.82014
▁expected	-7.82295
▁giant	-7.82616
▁her	-7.82877
://	-7.83643
▁way	-7.84419
▁p	-7.85192
▁north	-7.85192
▁1	-7.85247
▁3	-7.86148
▁since	-7.862
▁http	-7.86213
▁pay	-7.86378
▁growth	-7.86482
▁cut	-7.86599
www	-7.86885
p	-7.87232
▁through	-7.87245
ref	-7.87481
▁data	-7.87533
▁gold	-7.87561
▁early	-7.87671
▁start	-7.87859
▁system	-7.87905
▁head	-7.88526
▁john	-7.88726
▁wireless	-7.89063
▁trade	-7.89541
▁test	-7.89557
2	-7.90066
▁union	-7.90326
▁them	-7.90343
▁buy	-7.9038
▁nuclear	-7.90479
▁six	-7.90527
▁higher	-7.90544
▁services	-7.90814
▁dollar	-7.91447
info	-7.91497
▁australia	-7.91763
on	-7.91926
▁move	-7.91939
▁left	-7.92065
▁go	-7.92188
▁stock	-7.92274
▁military	-7.92394
l	-7.92811
▁earnings	-7.93013
▁phone	-7.93183
▁afp	-7.95072
▁air	-7.95456
▁him	-7.95901
▁attack	-7.96007
c	-7.96247
▁official	-7.96646
▁man	-7.96891
▁palestinian	-7.97093
▁beat	-7.97151
▁press	-7.97521
▁apple	-7.98581
▁amp	-7.98664
▁like	-7.98713
▁loss	-7.98755
▁being	-7.98941
▁players	-7.99189
▁west	-7.99509
▁firm	-7.9961
▁agreed	-8.00444
▁sox	-8.00537
▁car	-8.00663
es	-8.00793
▁near	-8.01048
▁face	-8.01111
▁play	-8.01155
cause	-8.01173
▁oracle	-8.01829
▁only	-8.0186
▁'	-8.01916
investor	-8.02509
▁months	-8.02754
▁israeli	-8.03041
▁olympic	-8.03162
▁windows	-8.03583
▁many	-8.03731
▁free	-8.03925
▁power	-8.0424
▁latest	-8.04257
in	-8.0447
quick	-8.04571
stocks	-8.04577
spx	-8.04582
▁global	-8.04609
▁price	-8.0493
▁days	-8.04944
▁part	-8.05019
▁england	-8.05068
▁found	-8.0507
▁rise	-8.05165
▁general	-8.05293
▁intel	-8.05394
▁rose	-8.05487
▁troops	-8.0559
▁executive	-8.05611
▁russia	-8.05637
re	-8.06251
▁gaza	-8.06287
▁st	-8.06554
▁even	-8.07296
▁again	-8.07844
▁do	-8.07896
▁drug	-8.08114
▁run	-8.08388
▁strong	-8.08455
▁iran	-8.08885
▁update	-8.09428
▁football	-8.09777
al	-8.09844
▁boston	-8.10023
▁including	-8.10429
▁users	-8.10564
quarter	-8.10972
▁jobs	-8.1116
▁key	-8.11253
▁launch	-8.1138
▁past	-8.12074
▁work	-8.12287
▁economic	-8.12299
▁economy	-8.12594
▁russian	-8.12642
▁released	-8.12658
▁europe	-8.12761
▁how	-8.12972
espite	-8.13174
▁biggest	-8.13274
▁ahead	-8.13636
based	-8.13647
▁ago	-8.13686
▁release	-8.13687
▁much	-8.13726
▁points	-8.13908
▁athens	-8.14326
▁street	-8.14574
▁peace	-8.14763
▁reports	-8.14883
▁offer	-8.14899
▁investors	-8.14953
▁re	-8.1538
▁video	-8.15409
▁boost	-8.15449
▁lower	-8.1547
▁forces	-8.15627
▁peoplesoft	-8.1598
▁half	-8.16035
r	-8.16619
▁keep	-8.16649
▁support	-8.16818
▁fall	-8.16857
▁your	-8.17249
▁sun	-8.1763
▁use	-8.17906
to	-8.18023
▁public	-8.18373
▁case	-8.18734
▁eu	-8.18847
i	-8.18855
▁bomb	-8.19145
▁pakistan	-8.1935
▁seven	-8.19742
▁held	-8.20151
▁title	-8.20475
▁close	-8.20818
▁fourth	-8.21562
▁sudan	-8.21572
▁right	-8.21591
▁where	-8.21925
▁uk	-8.22005
▁presidential	-8.22186
▁foreign	-8.2226
▁20	-8.22791
▁round	-8.22997
▁media	-8.23116
▁should	-8.23289
▁share	-8.23322
▁america	-8.23529
▁nation	-8.23835
▁nearly	-8.24026
9	-8.24084
ers	-8.24326
▁11	-8.24475
▁contract	-8.24585
6	-8.24628
▁men	-8.24901
▁israel	-8.24903
▁put	-8.25051
▁tokyo	-8.25135
▁financial	-8.25409
▁workers	-8.25966
▁house	-8.26196
▁wall	-8.26281
▁championship	-8.26458
▁linux	-8.26694
▁good	-8.26834
▁nasa	-8.26994
▁bill	-8.27287
▁low	-8.27511
▁french	-8.27565
▁per	-8.28125
▁we	-8.28191
▁anti	-8.28279
▁kill	-8.28306
▁australian	-8.2838
▁digital	-8.28482
old	-8.28542
▁nations	-8.28585
3	-8.28604
g	-8.28611
▁number	-8.28625
▁agency	-8.28689
▁attacks	-8.28736
▁francisco	-8.29036
▁kerry	-8.29187
▁systems	-8.29595
▁life	-8.30765
▁weeks	-8.30789
▁wins	-8.30853
▁best	-8.31087
▁player	-8.31197
▁fell	-8.31224
▁late	-8.31351
▁place	-8.31906
▁return	-8.32003
▁death	-8.32168
▁around	-8.32407
▁race	-8.32697
▁crude	-8.33169
▁hurricane	-8.33194
▁4	-8.33473
▁job	-8.33554
▁also	-8.3361
▁called	-8.33674
▁rival	-8.33714
▁took	-8.33952
▁capital	-8.33952
▁consumer	-8.34015
▁campaign	-8.34112
▁leaders	-8.34233
▁net	-8.34439
▁12	-8.34554
▁september	-8.34716
▁program	-8.34749
▁killing	-8.34863
▁scientists	-8.34878
▁chicago	-8.34938
▁center	-8.3499
▁florida	-8.35082
▁demand	-8.35108
▁arafat	-8.35157
▁2005	-8.35194
▁commission	-8.3538
▁october	-8.35388
▁battle	-8.35475
▁following	-8.3555
▁pc	-8.35932
▁line	-8.35942
▁darfur	-8.36047
▁version	-8.3629
▁france	-8.36749
▁n	-8.3689
▁any	-8.36949
▁here	-8.37226
▁army	-8.37303
▁korea	-8.37601
▁agreement	-8.37692
▁future	-8.38058
▁vote	-8.38136
▁show	-8.38258
▁f	-8.3832
up	-8.3874
▁trial	-8.38783
f	-8.38799
▁well	-8.38831
▁charges	-8.39459
▁site	-8.39475
▁japanese	-8.39493
▁both	-8.39591
▁give	-8.39722
▁post	-8.39787
▁might	-8.39863
▁strike	-8.40055
▁britain	-8.40254
▁star	-8.40395
▁used	-8.40431
▁board	-8.40496
▁region	-8.40874
▁chip	-8.41084
▁party	-8.41095
▁yankees	-8.41181
man	-8.41288
sports	-8.41489
▁defense	-8.41999
▁manager	-8.42206
▁dead	-8.42256
▁women	-8.42623
▁decision	-8.43604
▁products	-8.43815
▁political	-8.4424
▁sell	-8.44271
▁conference	-8.44406
▁school	-8.44455
k	-8.44807
ther	-8.44873
5	-8.44894
▁study	-8.45243
▁she	-8.45292
▁office	-8.45314
▁customers	-8.45419
▁real	-8.45571
▁several	-8.4571
▁results	-8.45973
▁hostage	-8.4617
▁fight	-8.46185
▁canadian	-8.46342
▁little	-8.46373
▁meeting	-8.46383
▁sony	-8.4667
36	-8.46721
▁away	-8.46759
▁energy	-8.46791
us	-8.46798
▁eight	-8.46864
▁meet	-8.47072
▁northern	-8.47123
en	-8.47153
▁judge	-8.47198
▁match	-8.47254
▁southern	-8.47289
▁champion	-8.47786
▁seek	-8.47951
▁without	-8.48239
▁november	-8.48734
▁management	-8.48742
7	-8.48775
▁reach	-8.48943
▁militants	-8.491
▁east	-8.49272
▁baseball	-8.49321
▁interest	-8.49396
▁costs	-8.49435
▁california	-8.49599
1	-8.4974
▁due	-8.49842
▁health	-8.49862
▁18	-8.5006
▁tax	-8.50109
▁recent	-8.50138
▁department	-8.50179
▁mark	-8.50418
▁field	-8.50582
▁central	-8.50875
▁force	-8.50967
▁few	-8.51221
▁straight	-8.51393
▁de	-8.51498
▁15	-8.51623
▁champions	-8.52454
▁grand	-8.5246
▁such	-8.52491
▁profile	-8.52503
▁g	-8.52535
▁quarterly	-8.52801
▁los	-8.53054
▁canada	-8.53171
▁gets	-8.5341
▁elections	-8.53483
▁making	-8.53582
▁told	-8.53714
▁fans	-8.53851
▁whe	-8.54111
▁hand	-8.54338
▁michael	-8.54409
▁hopes	-8.54519
▁own	-8.54544
▁:	-8.54614
▁fuel	-8.54657
▁cuts	-8.54724
▁better	-8.54859
▁increase	-8.55261
▁look	-8.55699
▁ceo	-8.55886
▁hard	-8.55911
▁club	-8.56032
▁claims	-8.56284
▁unit	-8.56819
▁tech	-8.56833
▁tv	-8.56892
▁amid	-8.5696
▁human	-8.56967
▁o	-8.56981
▁become	-8.5715
▁likely	-8.57278
▁scored	-8.57311
▁19	-8.575
▁source	-8.57723
▁across	-8.57849
▁running	-8.57926
▁quote	-8.57997
▁winning	-8.58019
time	-8.58472
▁violence	-8.58637
▁angeles	-8.58731
▁university	-8.59011
▁barrel	-8.59119
▁visit	-8.59183
▁august	-8.592
▁small	-8.59478
▁pull	-8.59486
▁lost	-8.59493
▁weekend	-8.59527
▁taking	-8.59533
▁rate	-8.59642
▁launched	-8.59679
▁aid	-8.59703
▁history	-8.59865
mail	-8.60152
▁design	-8.60247
▁saying	-8.60365
▁texas	-8.60528
▁cost	-8.60563
▁giants	-8.60935
▁chinese	-8.61007
▁houston	-8.61007
▁chairman	-8.61501
▁williams	-8.61574
▁server	-8.61594
▁come	-8.62033
▁rates	-8.62123
▁control	-8.62328
▁call	-8.62335
▁change	-8.62347
▁shot	-8.62408
▁german	-8.62537
▁fire	-8.62617
▁among	-8.62687
▁action	-8.62713
▁desktop	-8.62877
▁join	-8.63006
▁germany	-8.63172
▁7	-8.63417
▁coast	-8.63461
▁cash	-8.63545
▁14	-8.63584
▁stores	-8.63641
▁same	-8.63807
▁hold	-8.64034
▁13	-8.64125
▁drop	-8.6418
▁toward	-8.64333
▁radio	-8.64483
▁ipod	-8.64585
▁exchange	-8.64602
▁secretary	-8.6463
▁5	-8.64799
▁using	-8.6487
▁trading	-8.64944
▁information	-8.65033
▁morning	-8.65044
▁law	-8.65291
▁white	-8.6534
▁senior	-8.65428
▁afghanistan	-8.65529
▁accused	-8.65561
▁storm	-8.65602
▁push	-8.65713
▁old	-8.66053
▁rebels	-8.66214
▁30	-8.66301
▁behind	-8.66342
day	-8.66359
▁see	-8.66416
▁did	-8.66489
▁possible	-8.66641
▁cell	-8.66769
▁seen	-8.67025
▁yahoo	-8.67155
able	-8.67193
▁revenue	-8.67363
▁file	-8.67537
▁injured	-8.677
▁less	-8.67814
▁access	-8.67862
▁hits	-8.6795
▁led	-8.67984
▁bring	-8.68053
▁operating	-8.68075
▁16	-8.68085
▁q	-8.68196
▁gas	-8.68225
▁oct	-8.683
▁far	-8.68325
▁communications	-8.68488
▁w	-8.68503
▁fund	-8.6851
▁euro	-8.68561
▁17	-8.6861
▁going	-8.68646
▁short	-8.68743
▁soldiers	-8.69143
▁paris	-8.69375
▁raise	-8.69578
▁warned	-8.69644
▁times	-8.69649
▁tour	-8.69764
▁bankruptcy	-8.69844
▁phones	-8.69933
▁indian	-8.70169
▁forecast	-8.70186
▁almost	-8.70268
▁nine	-8.7038
▁full	-8.70445
▁rally	-8.70479
▁reserve	-8.70547
▁thousands	-8.70732
▁step	-8.70798
▁nov	-8.70924
▁sports	-8.71239
▁takeover	-8.71456
▁calls	-8.7164
▁allow	-8.71642
▁stadium	-8.72181
▁medal	-8.72389
▁ready	-8.72549
se	-8.72613
▁david	-8.72711
▁got	-8.72746
▁division	-8.7307
▁green	-8.73157
▁makes	-8.73214
▁large	-8.73222
▁nfl	-8.73374
▁afghan	-8.734
▁airlines	-8.73418
▁local	-8.73479
▁let	-8.73729
▁too	-8.73784
▁showed	-8.73799
▁television	-8.73958
▁those	-8.74134
▁must	-8.74157
▁c	-8.74164
▁posted	-8.74227
▁profits	-8.7427
less	-8.74281
ic	-8.74332
▁find	-8.74468
▁production	-8.74483
▁engine	-8.74507
▁claim	-8.74518
▁sign	-8.74547
▁money	-8.74755
▁yet	-8.74832
▁africa	-8.75095
▁stake	-8.75114
▁toronto	-8.75239
▁probe	-8.75248
▁jones	-8.75352
▁sale	-8.75379
▁ban	-8.75471
▁offering	-8.75781
▁paul	-8.75994
▁agree	-8.7602
▁outlook	-8.76113
▁need	-8.76397
co	-8.76433
▁begin	-8.76769
▁100	-8.76784
▁stop	-8.76831
▁alleged	-8.77089
▁soon	-8.77115
▁blue	-8.77168
▁ever	-8.77242
▁spain	-8.77261
▁came	-8.77639
▁opposition	-8.77704
▁signed	-8.77958
▁association	-8.78045
▁blast	-8.78054
▁store	-8.7824
▁station	-8.78299
h	-8.78519
▁wants	-8.78634
▁legal	-8.78727
▁black	-8.78795
▁corporate	-8.79307
an	-8.79444
▁product	-8.79549
▁rebel	-8.79675
▁blair	-8.79769
▁food	-8.7979
▁african	-8.80103
▁helped	-8.80294
▁began	-8.80375
▁list	-8.80405
▁focus	-8.80411
▁career	-8.80544
▁earlier	-8.80841
▁25	-8.8103
▁threat	-8.81089
▁ltd	-8.81301
▁m	-8.8144
▁concerns	-8.81763
▁airline	-8.81928
▁point	-8.81982
▁opening	-8.81991
ntil	-8.82007
▁heart	-8.82028
▁don	-8.82041
▁investment	-8.82198
▁personal	-8.82295
▁pressure	-8.82334
▁died	-8.82336
▁council	-8.82353
▁insurance	-8.82716
▁r	-8.83067
▁countries	-8.8307
▁gains	-8.83326
▁administration	-8.83431
▁ex	-8.83513
▁olympics	-8.83554
▁performance	-8.83574
▁already	-8.83914
▁arsenal	-8.84157
▁once	-8.84175
▁competition	-8.84275
▁sept	-8.84306
▁efforts	-8.84538
▁main	-8.84568
▁markets	-8.84616
▁members	-8.84772
▁great	-8.84772
▁supply	-8.84774
▁continue	-8.84803
ve	-8.84871
▁pm	-8.84958
151	-8.85021
▁arrested	-8.8516
▁terror	-8.85668
▁flight	-8.85925
▁analysts	-8.86114
▁trying	-8.86146
▁spending	-8.8623
▁madrid	-8.86235
▁holiday	-8.86282
▁western	-8.86349
▁ended	-8.86599
▁miami	-8.87114
▁within	-8.87183
▁defeat	-8.87261
▁family	-8.87484
▁retail	-8.87599
▁growing	-8.87658
▁add	-8.87729
▁airways	-8.87856
▁weapons	-8.87962
▁charged	-8.88435
▁sharon	-8.88613
▁americans	-8.88677
▁rules	-8.88684
▁networks	-8.88708
▁park	-8.88784
▁drive	-8.88805
▁bowl	-8.88851
▁outside	-8.88871
▁bay	-8.89039
▁george	-8.89119
▁side	-8.89328
▁survey	-8.89356
▁hours	-8.89534
▁effort	-8.89866
▁24	-8.89912
▁want	-8.8999
▁extend	-8.89997
the	-8.90146
▁beijing	-8.90149
▁italian	-8.90154
▁nba	-8.90412
▁looking	-8.90419
▁crisis	-8.90531
▁authorities	-8.90531
▁development	-8.90549
▁6	-8.90582
▁fighting	-8.90644
▁enough	-8.9066
update	-8.90665
▁gave	-8.90801
▁quarterback	-8.90821
▁ruling	-8.90937
▁dell	-8.91144
j	-8.91219
▁pre	-8.91335
▁asia	-8.91708
▁pro	-8.91743
▁seattle	-8.91835
▁suicide	-8.92096
▁charge	-8.92308
▁retailer	-8.92348
▁manchester	-8.92488
▁finally	-8.92515
▁starting	-8.92588
▁children	-8.92884
ive	-8.92971
▁popular	-8.93019
▁injury	-8.93184
▁coming	-8.93257
▁each	-8.93286
▁labor	-8.93289
▁yards	-8.93376
▁reached	-8.93578
coming	-8.93709
▁policy	-8.93896
▁goal	-8.939
▁21	-8.93922
▁computers	-8.94057
▁fears	-8.94127
▁x	-8.9422
▁8	-8.94918
▁others	-8.95085
▁college	-8.95118
▁cisco	-8.95155
▁consumers	-8.95217
▁taken	-8.95413
▁rights	-8.95435
▁aimed	-8.95614
est	-8.95653
▁attempt	-8.9567
▁failed	-8.9581
▁offers	-8.9601
▁devices	-8.96012
or	-8.96093
▁hope	-8.96133
mart	-8.96207
▁further	-8.96381
▁risk	-8.96382
ie	-8.96393
▁ivan	-8.96588
▁yass	-8.96654
▁yukos	-8.96654
▁9	-8.96656
▁gain	-8.96916
ion	-8.96929
▁researchers	-8.97149
▁sees	-8.97234
x	-8.97244
▁double	-8.97272
▁name	-8.97294
▁continued	-8.97304
▁turn	-8.97438
▁private	-8.97494
q	-8.976
▁executives	-8.9764
▁operations	-8.97795
▁electronics	-8.97895
▁basketball	-8.97897
▁guard	-8.98058
▁teams	-8.98112
▁stay	-8.98262
▁problems	-8.98351
getting	-8.98436
▁poll	-8.98667
▁water	-8.98844
▁fraud	-8.99025
▁staff	-8.99134
▁appeal	-8.99183
▁soccer	-8.99438
▁rising	-8.99453
▁moscow	-8.99583
▁asian	-8.99728
▁warning	-8.99769
▁leave	-9.00048
▁merger	-9.00071
▁davis	-9.00146
month	-9.00195
▁powerful	-9.00316
▁challenge	-9.00352
▁dispute	-9.00361
▁working	-9.00393
cp	-9.00476
▁fresh	-9.00546
▁atlanta	-9.00583
▁track	-9.00608
▁winter	-9.00612
▁j	-9.00727
▁missing	-9.00762
▁shows	-9.00803
▁mission	-9.00812
▁raised	-9.00843
▁size	-9.00908
▁potential	-9.01003
▁calif	-9.01147
▁debt	-9.01231
▁suspected	-9.01341
▁above	-9.01434
and	-9.01554
▁never	-9.01733
▁break	-9.01736
▁ground	-9.01739
▁mac	-9.01778
▁issue	-9.01826
▁earth	-9.0188
▁filed	-9.01925
▁send	-9.01992
st	-9.02255
▁satellite	-9.02697
fi	-9.02709
▁investigation	-9.02846
▁chance	-9.02851
▁muslim	-9.02852
▁role	-9.03327
▁create	-9.03381
▁auto	-9.03613
▁acquire	-9.03617
▁miss	-9.03642
▁rivals	-9.03711
▁young	-9.03844
▁selling	-9.03936
▁annual	-9.0394
▁cricket	-9.04184
▁build	-9.04185
▁hospital	-9.04311
▁try	-9.04384
run	-9.04726
▁worth	-9.04925
▁businesses	-9.04979
▁town	-9.05
▁provide	-9.05003
▁lawsuit	-9.05097
▁order	-9.05315
▁debate	-9.05513
▁signs	-9.05649
▁wal	-9.05668
▁palestinians	-9.05738
▁storage	-9.05859
▁chips	-9.05944
▁fired	-9.0605
▁went	-9.06063
▁named	-9.06149
▁expectations	-9.06245
▁delta	-9.06304
▁planned	-9.06325
▁lift	-9.06355
z	-9.06494
▁island	-9.06512
4	-9.0657
▁every	-9.06619
▁sold	-9.06634
▁express	-9.06774
▁captain	-9.07065
▁xp	-9.07156
ton	-9.07349
▁nokia	-9.07525
▁prison	-9.07554
game	-9.07581
▁officer	-9.07617
▁area	-9.07699
▁tony	-9.07927
▁firms	-9.08024
▁clear	-9.08206
▁strip	-9.08234
▁credit	-9.08275
▁issues	-9.08361
▁hundreds	-9.08758
▁code	-9.08784
▁faces	-9.08867
▁available	-9.08905
▁rest	-9.0895
▁finance	-9.08982
▁travel	-9.09037
▁edge	-9.09121
▁sprint	-9.0913
▁launches	-9.09151
▁detroit	-9.09221
▁italy	-9.09224
▁sent	-9.0938
▁securities	-9.09687
▁militant	-9.09773
led	-9.09954
▁democratic	-9.10053
▁ryder	-9.10154
▁experts	-9.10422
w	-9.10441
▁singh	-9.10634
▁moon	-9.10664
▁browser	-9.10913
▁regulators	-9.10946
▁enter	-9.11068
▁brown	-9.11069
▁medical	-9.11102
▁najaf	-9.11264
▁prize	-9.11274
▁reject	-9.11525
▁singapore	-9.11597
▁does	-9.11609
▁mo	-9.11609
▁closer	-9.11815
▁losses	-9.11845
▁boeing	-9.11927
▁spam	-9.12001
le	-9.12131
u	-9.12184
▁astros	-9.1222
▁employees	-9.12248
▁enterprise	-9.12378
▁dollars	-9.12455
▁23	-9.12521
▁congress	-9.12678
▁philadelphia	-9.12704
▁approved	-9.1271
▁project	-9.12753
▁single	-9.12845
▁dutch	-9.12881
▁johnson	-9.12891
▁process	-9.12952
▁cent	-9.13008
▁ireland	-9.13031
▁body	-9.13039
▁middle	-9.13182
▁rocket	-9.13232
▁card	-9.13242
▁speed	-9.13312
▁sites	-9.13374
▁road	-9.13449
▁unveil	-9.13476
▁asked	-9.13526
▁50	-9.13535
▁taiwan	-9.13672
▁review	-9.13687
▁current	-9.13711
▁known	-9.13716
▁islamic	-9.14008
▁host	-9.14053
▁brazil	-9.14161
▁safety	-9.14168
▁fallujah	-9.1418
▁december	-9.14185
▁light	-9.14305
▁think	-9.14356
▁tournament	-9.14358
▁louis	-9.14438
▁watch	-9.145
▁bad	-9.14628
post	-9.14645
▁color	-9.14677
▁unveiled	-9.15028
▁looks	-9.15036
▁terrorism	-9.15059
▁woods	-9.15157
▁dvd	-9.15259
▁mid	-9.15339
▁given	-9.15469
ies	-9.15604
▁special	-9.15625
▁decided	-9.15684
▁urged	-9.15691
▁holding	-9.15741
▁include	-9.1577
▁settle	-9.15781
sh	-9.15964
▁confirmed	-9.16132
▁offensive	-9.16143
▁technologies	-9.16322
▁runs	-9.16348
▁building	-9.16607
▁golf	-9.16693
▁later	-9.16718
▁drugs	-9.16857
▁forward	-9.16968
▁camp	-9.17049
▁amd	-9.17201
▁total	-9.17209
▁goes	-9.17268
▁disney	-9.17319
▁la	-9.17437
▁putin	-9.17737
▁hp	-9.17862
▁event	-9.17906
▁debut	-9.17917
▁lines	-9.18174
▁giving	-9.18346
▁fifth	-9.18346
▁average	-9.18362
▁vs	-9.18382
▁22	-9.18603
▁commercial	-9.18677
▁streak	-9.18848
▁row	-9.18909
▁applications	-9.18957
▁mike	-9.19028
▁success	-9.19502
▁position	-9.19562
▁our	-9.19623
▁warns	-9.19937
▁along	-9.19951
▁pick	-9.19993
▁plane	-9.20366
▁accounting	-9.20551
▁kidnapped	-9.20577
▁equipment	-9.20589
▁woman	-9.20618
▁hostages	-9.20655
▁eye	-9.20829
▁losing	-9.20967
▁added	-9.21068
▁broadband	-9.21105
▁director	-9.21139
source	-9.21249
▁turned	-9.21436
▁justice	-9.21459
▁summer	-9.21511
▁my	-9.21517
8	-9.21659
▁jets	-9.21661
▁increased	-9.21683
▁level	-9.21752
▁aug	-9.21835
off	-9.21902
▁know	-9.2196
▁comes	-9.22013
▁front	-9.22172
▁dec	-9.22331
▁cleric	-9.22349
▁course	-9.22351
bn	-9.22376
▁bonds	-9.22471
ar	-9.22476
▁greece	-9.22514
▁suffer	-9.22601
▁remain	-9.22607
ei	-9.227
▁insurgents	-9.22709
▁indonesia	-9.22897
▁tough	-9.22939
▁standard	-9.2305
▁crash	-9.23093
▁2003	-9.23113
▁fast	-9.23149
▁pace	-9.23164
▁claimed	-9.23197
▁evidence	-9.23227
▁minnesota	-9.23227
▁spokesman	-9.23227
▁wi	-9.23311
▁hurt	-9.23339
▁k	-9.23401
▁26	-9.23438
▁decline	-9.23473
▁save	-9.23571
▁why	-9.23586
▁wounded	-9.23639
▁moved	-9.23648
at	-9.23772
▁2006	-9.23813
▁airport	-9.23813
▁steve	-9.23873
▁avoid	-9.23903
▁flu	-9.23919
▁pilots	-9.24141
▁flat	-9.24356
▁rises	-9.24358
▁playing	-9.24502
▁rock	-9.24592
▁groups	-9.24707
▁develop	-9.24839
▁changes	-9.24844
having	-9.24887
▁27	-9.24887
▁touchdown	-9.24912
▁slow	-9.25115
▁turkey	-9.25217
el	-9.25432
▁content	-9.25576
▁virginia	-9.2565
▁based	-9.25659
▁met	-9.2573
▁though	-9.25807
▁received	-9.25852
▁draw	-9.25981
▁chelsea	-9.26137
▁parliament	-9.26231
▁consider	-9.26249
▁very	-9.2636
▁jump	-9.26411
▁suspended	-9.26434
▁rain	-9.26451
▁huge	-9.26594
▁arm	-9.26622
▁didn	-9.26768
▁tiger	-9.26787
▁advanced	-9.26907
▁term	-9.27321
▁talk	-9.27334
▁voters	-9.27374
▁plant	-9.27521
▁border	-9.27576
▁tennis	-9.27621
▁doesn	-9.27696
▁explosion	-9.27736
▁posts	-9.27807
▁protection	-9.27827
▁settlement	-9.27936
▁july	-9.28011
▁sources	-9.2817
▁guilty	-9.28186
▁suit	-9.28234
▁acquisition	-9.28312
▁deficit	-9.28312
▁kashmir	-9.2841
▁stage	-9.28414
▁device	-9.28513
than	-9.28543
▁finish	-9.28565
▁supreme	-9.28748
▁form	-9.29019
▁gives	-9.29125
▁confidence	-9.29146
▁heat	-9.2926
▁scandal	-9.29278
▁sets	-9.29404
▁seeking	-9.29422
▁opened	-9.29457
▁funds	-9.29464
v	-9.29469
▁march	-9.29496
▁result	-9.29507
cbs	-9.29559
▁cause	-9.29575
▁mass	-9.29616
▁toll	-9.2962
▁remains	-9.29685
type	-9.29889
▁able	-9.3005
▁howard	-9.30097
▁winner	-9.30104
ese	-9.30114
▁cardinals	-9.30245
▁classic	-9.30338
net	-9.3042
▁spot	-9.3043
▁movie	-9.30839
▁continues	-9.3084
▁missile	-9.30855
▁committee	-9.3086
▁statement	-9.309
▁mexico	-9.31046
▁proposed	-9.31128
▁concern	-9.31225
▁increasing	-9.31239
▁ca	-9.31302
▁tool	-9.31303
▁hat	-9.31409
▁itunes	-9.31433
▁spanish	-9.31433
▁january	-9.3144
▁worries	-9.31628
▁hollywood	-9.31631
▁delay	-9.3169
▁28	-9.31693
▁below	-9.31693
▁minutes	-9.31705
▁sue	-9.31751
▁expects	-9.31755
▁organization	-9.31831
▁sanctions	-9.31948
mw	-9.3206
▁range	-9.32107
▁leaving	-9.32214
▁ball	-9.3226
▁karzai	-9.3241
▁mars	-9.32556
▁memory	-9.32623
▁me	-9.32638
▁poor	-9.32792
▁weather	-9.3281
▁electronic	-9.32827
▁care	-9.32943
▁zealand	-9.33
▁interim	-9.33003
▁land	-9.33014
▁falls	-9.33078
▁nextel	-9.33094
▁chain	-9.33245
▁crowd	-9.33245
▁nhl	-9.33398
▁science	-9.33447
▁played	-9.33802
▁senate	-9.33802
▁powell	-9.33993
▁entertainment	-9.34003
end	-9.34015
▁block	-9.34235
▁king	-9.34238
ll	-9.34279
▁forced	-9.34294
▁fed	-9.34614
▁ruled	-9.34644
▁tell	-9.34679
▁act	-9.34856
0	-9.34871
▁korean	-9.34885
▁formula	-9.34976
▁supplies	-9.34997
▁inning	-9.35121
▁aircraft	-9.35197
▁application	-9.35275
▁pass	-9.35327
▁yen	-9.35418
▁futures	-9.35482
▁sec	-9.35531
ranked	-9.35584
▁boss	-9.35585
▁kong	-9.35608
▁threatened	-9.35661
▁secure	-9.35829
▁illegal	-9.35883
▁newspaper	-9.35897
▁caus	-9.36041
▁rule	-9.36077
▁carrier	-9.36111
▁files	-9.36185
▁crew	-9.36188
▁sweep	-9.3621
▁started	-9.36325
▁firefox	-9.36414
▁virus	-9.36441
▁slightly	-9.36444
▁defend	-9.36478
▁venture	-9.36526
▁$1	-9.36686
▁thought	-9.36835
▁cable	-9.36857
▁proposal	-9.36939
▁sharply	-9.36941
▁protest	-9.37
▁shopping	-9.3703
▁tonight	-9.37036
quote	-9.37058
▁moves	-9.37071
out	-9.371
▁playoff	-9.3718
▁stewart	-9.37235
▁$50	-9.37281
▁mortgage	-9.37356
▁provider	-9.37391
▁panel	-9.37399
▁offered	-9.37401
▁inflation	-9.37441
▁heavy	-9.37452
▁warner	-9.37506
▁super	-9.37615
▁download	-9.37865
▁rejected	-9.37925
▁masters	-9.37945
▁fla	-9.38002
▁dropped	-9.38066
▁initial	-9.38142
▁wild	-9.38154
▁beating	-9.38222
▁wanted	-9.38374
▁blow	-9.3841
▁rush	-9.38461
▁progress	-9.38673
▁kabul	-9.38896
▁murder	-9.38991
▁deep	-9.39109
▁assault	-9.39118
▁servers	-9.39129
▁questions	-9.39141
▁became	-9.3917
▁problem	-9.39262
▁complete	-9.39293
▁terrorist	-9.39294
▁buying	-9.39393
▁james	-9.39533
▁needs	-9.39599
▁auction	-9.396
▁ukraine	-9.39742
▁carolina	-9.39747
▁prix	-9.39951
▁film	-9.39975
▁nigeria	-9.4001
▁returned	-9.40031
▁check	-9.40067
▁sector	-9.40141
▁question	-9.40216
ad	-9.40219
▁jail	-9.40271
▁these	-9.40296
▁40	-9.4038
▁jose	-9.40386
▁banks	-9.40493
▁patriots	-9.40554
▁hong	-9.40619
▁oakland	-9.408
▁homes	-9.40921
▁eagles	-9.40948
▁stand	-9.41022
▁hockey	-9.41023
▁premier	-9.41102
▁striker	-9.41352
▁lose	-9.41427
▁candidate	-9.41429
▁photo	-9.41436
▁irish	-9.41478
▁reduce	-9.41506
back	-9.4158
▁egypt	-9.41882
field	-9.41898
▁base	-9.41934
ling	-9.42106
▁shareholders	-9.42229
▁pension	-9.42313
▁recently	-9.42408
▁abu	-9.42433
▁hot	-9.42477
▁haiti	-9.42506
tica	-9.42766
▁2000	-9.42776
ams	-9.42821
▁eastern	-9.42845
▁then	-9.42853
though	-9.42885
▁orders	-9.42955
▁vice	-9.42972
▁mount	-9.43217
canadian	-9.43229
▁wide	-9.43352
▁impact	-9.43394
▁uranium	-9.43394
▁ivory	-9.43394
▁ministry	-9.43397
▁opec	-9.43427
▁protect	-9.43508
▁font	-9.43566
▁saudi	-9.43833
▁replace	-9.43938
▁embassy	-9.44053
▁relief	-9.44053
▁msn	-9.44107
▁value	-9.44209
▁motor	-9.44297
ment	-9.44303
▁millions	-9.44415
as	-9.44416
riel	-9.4452
▁wait	-9.44533
▁joint	-9.4459
▁important	-9.44734
▁live	-9.44833
▁ending	-9.44924
▁michigan	-9.44939
▁brought	-9.44943
▁ohio	-9.44953
▁deadline	-9.44956
▁hoping	-9.44974
▁sharp	-9.45142
▁spacecraft	-9.45164
▁merck	-9.45164
▁christmas	-9.45171
ur	-9.45172
▁negotiations	-9.45222
▁sending	-9.45297
▁kept	-9.45385
under	-9.45387
▁longer	-9.45459
▁tools	-9.45531
▁clash	-9.45576
▁thailand	-9.45612
▁ease	-9.45628
▁bombing	-9.45643
▁closed	-9.45667
▁practice	-9.45699
▁pakistani	-9.458
▁el	-9.45833
nyse	-9.45924
▁ford	-9.45924
▁aol	-9.46035
▁pcs	-9.46055
▁consecutive	-9.46058
▁dallas	-9.46063
▁dolphins	-9.46155
▁surgery	-9.4629
▁6-4	-9.46291
son	-9.46326
▁withdraw	-9.46326
▁attorney	-9.46369
▁leads	-9.46403
▁intelligence	-9.46521
▁passes	-9.46547
▁29	-9.4664
▁fine	-9.4671
way	-9.46754
▁upset	-9.46828
▁aim	-9.46916
▁com	-9.46976
▁discuss	-9.46994
nasdaq	-9.47032
▁os	-9.47095
▁brand	-9.47218
▁arms	-9.47307
▁non	-9.47353
▁features	-9.47396
▁martin	-9.47416
▁worldwide	-9.47443
▁weak	-9.47534
▁arab	-9.47583
▁issued	-9.47607
▁training	-9.4776
term	-9.47815
▁needed	-9.4785
▁bird	-9.47854
▁strategy	-9.47878
▁scheduled	-9.48055
▁budget	-9.48127
▁trip	-9.48206
▁accept	-9.48241
▁prepare	-9.4827
▁announce	-9.48403
▁sea	-9.48442
▁expand	-9.48447
▁60	-9.48453
▁highest	-9.48475
▁te	-9.48536
▁kansas	-9.48564
▁controversial	-9.48794
▁halt	-9.48832
▁wound	-9.48863
▁hamas	-9.49029
▁planning	-9.49037
ful	-9.49114
▁civil	-9.49245
▁himself	-9.49258
▁massive	-9.49274
▁enron	-9.49279
▁patent	-9.49407
▁improve	-9.49422
week	-9.49499
ation	-9.49659
▁approval	-9.49725
▁cards	-9.49746
▁-2	-9.4979
▁spark	-9.4984
▁conflict	-9.49882
▁hostile	-9.49966
▁cubs	-9.5004
▁soldier	-9.50128
▁damage	-9.50163
▁output	-9.50191
▁together	-9.50192
▁easy	-9.50204
▁zone	-9.50229
▁threaten	-9.50238
▁figures	-9.50282
▁arrest	-9.50297
▁targets	-9.50299
▁angels	-9.50316
▁hire	-9.50319
is	-9.5034
expected	-9.50441
▁serious	-9.50534
▁operation	-9.506
▁names	-9.50681
▁climate	-9.50897
▁novell	-9.50907
ry	-9.50934
▁begins	-9.50961
▁approve	-9.50977
font	-9.50997
▁ok	-9.51001
▁mets	-9.51038
▁cleveland	-9.51134
▁industrial	-9.51138
helve	-9.51153
▁recovery	-9.51223
▁calling	-9.51258
▁mixed	-9.51278
▁surprise	-9.5135
▁alliance	-9.51377
▁eyes	-9.51397
▁bombs	-9.51523
▁hotel	-9.51586
▁ran	-9.51592
▁developed	-9.51606
▁semiconductor	-9.51608
▁advance	-9.51741
erif	-9.51829
▁advertising	-9.51846
▁struggling	-9.51846
▁producer	-9.51851
arial	-9.51869
▁verdan	-9.52085
▁surge	-9.52096
▁afternoon	-9.521
▁processor	-9.52113
▁positive	-9.52325
▁saw	-9.52362
me	-9.52439
▁manage	-9.52444
▁ties	-9.52488
▁raid	-9.52528
▁greek	-9.52537
▁republican	-9.52552
▁knee	-9.52563
▁ebay	-9.5258
▁published	-9.52633
ri	-9.52688
▁revealed	-9.52764
▁lot	-9.5277
▁image	-9.52782
▁interview	-9.52785
▁common	-9.5279
66666	-9.52805
▁threw	-9.5281
▁facing	-9.52842
▁member	-9.5287
▁instead	-9.52886
▁cit	-9.5291
▁ends	-9.52943
▁innings	-9.52967
▁pack	-9.52974
▁lawsuits	-9.5305
▁worst	-9.53051
▁airbus	-9.53295
▁vioxx	-9.53529
▁programs	-9.5359
▁ve	-9.53604
▁direct	-9.53627
ul	-9.53638
▁tim	-9.53664
▁struck	-9.53781
▁built	-9.53804
▁view	-9.53975
▁jerusalem	-9.54015
▁tie	-9.54178
▁pittsburgh	-9.54265
▁am	-9.54302
▁ll	-9.54385
▁things	-9.54411
▁l	-9.54451
▁secret	-9.54526
▁award	-9.54705
▁daily	-9.54755
▁summit	-9.5476
▁operator	-9.54767
it	-9.54894
▁previous	-9.55113
▁troubled	-9.55149
▁itself	-9.55241
▁manufacturing	-9.55246
▁tests	-9.55278
▁sp	-9.55399
▁smith	-9.55505
ce	-9.55539
▁different	-9.55607
ial	-9.55702
▁musharraf	-9.55735
▁nintendo	-9.55735
▁arizona	-9.55735
▁telephone	-9.55736
▁federer	-9.5574
▁domestic	-9.55983
▁voting	-9.56049
▁smart	-9.56056
▁200	-9.56276
▁details	-9.56393
▁period	-9.56517
▁estimates	-9.56587
▁ordered	-9.56619
▁1-	-9.56688
▁delhi	-9.56733
▁bears	-9.56759
▁owner	-9.56809
▁35	-9.56968
▁indonesian	-9.57195
▁ten	-9.57257
▁makers	-9.57314
▁decades	-9.57397
▁cingular	-9.57485
▁nikk	-9.57488
▁expos	-9.57505
▁victims	-9.57526
▁believe	-9.57625
▁room	-9.57646
▁warming	-9.57724
▁trophy	-9.57738
▁$10	-9.57739
uk	-9.57798
▁probabl	-9.57803
▁49	-9.57828
▁royal	-9.5783
▁marketing	-9.57865
▁critical	-9.57878
▁train	-9.57895
▁shut	-9.57964
▁retailers	-9.57992
▁#3	-9.58059
▁ipo	-9.58136
▁prompt	-9.58245
▁racing	-9.5829
▁decade	-9.58355
▁filing	-9.58355
▁pitcher	-9.584
▁shift	-9.58407
▁jet	-9.58425
▁bell	-9.58455
▁sydney	-9.58499
▁showing	-9.58571
▁br	-9.58714
yard	-9.58741
▁community	-9.58754
▁rangers	-9.58764
▁moving	-9.58774
▁micro	-9.58796
▁multi	-9.58803
of	-9.58848
▁platform	-9.58865
▁saddam	-9.59015
▁helping	-9.59044
▁beginning	-9.59269
▁cancer	-9.59276
▁introduced	-9.59337
▁criminal	-9.59383
▁terms	-9.59385
▁machines	-9.59402
▁score	-9.59493
▁ask	-9.59509
▁extended	-9.5956
▁opener	-9.5961
▁#6	-9.59658
▁appeared	-9.59678
▁liverpool	-9.59781
▁offense	-9.59781
▁expansion	-9.59783
▁roger	-9.59902
▁deadly	-9.59936
▁species	-9.60041
▁something	-9.60055
▁goals	-9.60186
ous	-9.60205
▁decide	-9.60236
▁broad	-9.60279
▁dame	-9.60319
▁rookie	-9.60558
▁fear	-9.60737
▁spent	-9.60821
▁blood	-9.6123
land	-9.61302
▁typhoon	-9.61342
▁inside	-9.61422
▁buys	-9.6155
▁plc	-9.61618
▁message	-9.61782
ity	-9.6179
▁isn	-9.62051
▁tehran	-9.62131
▁passed	-9.62302
▁explorer	-9.62434
▁broke	-9.62447
▁developing	-9.62526
▁arrived	-9.62574
▁benefits	-9.62641
▁shuttle	-9.62654
▁utah	-9.62661
▁walk	-9.62662
▁sport	-9.62664
▁diego	-9.62665
▁bryant	-9.6268
▁model	-9.62694
▁parts	-9.62737
▁book	-9.62765
for	-9.6277
▁index	-9.62917
▁fannie	-9.62927
▁falling	-9.62997
▁age	-9.63012
▁historic	-9.63042
▁finds	-9.63101
▁touchdowns	-9.63109
▁verizon	-9.63194
▁jason	-9.63195
▁date	-9.63224
point	-9.63303
▁vladimir	-9.63461
▁flash	-9.63647
▁discovered	-9.63697
▁watchdog	-9.63729
au	-9.63905
▁fiscal	-9.63998
ally	-9.64008
▁draft	-9.64011
high	-9.64056
▁income	-9.64098
▁flights	-9.64204
▁vow	-9.64222
▁virgin	-9.64444
ness	-9.64491
▁amazon	-9.64538
▁session	-9.6455
half	-9.64707
▁recall	-9.64779
▁welcome	-9.64819
▁purchase	-9.64827
▁annan	-9.64862
▁dodgers	-9.6495
▁defence	-9.65081
speed	-9.65245
▁display	-9.65334
▁falluja	-9.65338
▁bus	-9.65459
cat	-9.65487
largest	-9.65516
▁corporation	-9.65593
▁knock	-9.65617
▁remained	-9.65623
▁done	-9.65656
▁associated	-9.6566
te	-9.6579
▁aims	-9.65829
▁tomorrow	-9.659
▁paid	-9.65942
▁resume	-9.65952
▁bin	-9.66047
▁province	-9.6615
▁sex	-9.66157
▁demands	-9.66215
▁dow	-9.66301
▁miles	-9.66344
▁partners	-9.66389
▁students	-9.66447
▁microsystems	-9.6645
▁baltimore	-9.6645
▁numbers	-9.66697
ter	-9.66705
▁republic	-9.66713
▁resolution	-9.66751
▁id	-9.6677
news	-9.66869
▁appears	-9.66964
▁puts	-9.66965
ca	-9.66976
▁regulator	-9.66999
▁montreal	-9.67004
▁cross	-9.67078
▁cars	-9.67167
▁holds	-9.67177
ary	-9.6723
▁returns	-9.67261
▁mozilla	-9.67281
▁antitrust	-9.67286
▁dream	-9.67293
▁assets	-9.67295
▁polls	-9.67424
▁pair	-9.67504
▁wake	-9.67559
▁format	-9.67573
packard	-9.67608
▁driver	-9.67632
▁planet	-9.67675
▁catch	-9.67697
▁ag	-9.67705
▁announces	-9.67706
▁mon	-9.67809
▁hewlett	-9.67844
▁tried	-9.6785
▁marsh	-9.67895
▁stars	-9.67944
▁virtual	-9.67963
▁link	-9.67971
▁urges	-9.68023
▁cabinet	-9.68119
▁announcement	-9.68143
▁homer	-9.68156
▁doctors	-9.68252
▁heating	-9.68259
nt	-9.68283
▁wrong	-9.68402
▁nothing	-9.68408
▁voice	-9.68539
line	-9.68551
ne	-9.68561
▁bar	-9.68641
▁steel	-9.68645
▁samsung	-9.68682
▁rais	-9.68932
▁defensive	-9.68964
▁gulf	-9.68966
▁upgrade	-9.68992
▁residents	-9.69051
▁story	-9.69058
▁thanks	-9.69071
▁georgia	-9.69095
washington	-9.69148
▁traders	-9.69201
▁hands	-9.69214
▁copyright	-9.69249
▁portable	-9.6926
▁gm	-9.69273
▁wrap	-9.69316
▁threats	-9.694
▁seventh	-9.69464
▁jakarta	-9.69532
▁nascar	-9.69533
▁hewitt	-9.69537
▁java	-9.69538
▁vi	-9.69652
▁exports	-9.69664
▁slam	-9.69677
▁rare	-9.6971
▁treasury	-9.69817
▁greenspan	-9.69824
▁reform	-9.6992
▁options	-9.70082
▁english	-9.70085
▁van	-9.70094
▁traffic	-9.701
▁sixth	-9.70108
▁fastest	-9.70123
▁hurricanes	-9.70288
▁twice	-9.70389
▁colorado	-9.70391
▁1000	-9.7041
▁owners	-9.70411
▁partner	-9.70467
▁reportedly	-9.70517
▁tight	-9.70538
▁tom	-9.70641
▁manning	-9.70671
▁congo	-9.70679
▁toshiba	-9.70681
▁introduce	-9.70693
▁400	-9.70698
▁theft	-9.70715
▁exploded	-9.70744
▁testing	-9.70835
▁hall	-9.70861
▁delayed	-9.70954
▁schedule	-9.71043
▁mae	-9.71082
star	-9.71198
▁braves	-9.71274
▁gates	-9.71276
▁titan	-9.71337
▁2-0	-9.71552
▁31	-9.71693
▁mp	-9.71707
▁nl	-9.71782
▁closing	-9.71837
▁va	-9.71843
▁sen	-9.7193
ch	-9.71971
1)	-9.71984
▁faster	-9.71988
▁qualifying	-9.72008
▁convention	-9.72042
▁coalition	-9.72126
▁oklahoma	-9.72126
▁saturn	-9.72126
▁extra	-9.72127
▁edition	-9.7214
▁pact	-9.72144
▁lay	-9.72146
▁generation	-9.72159
▁freed	-9.72163
pc	-9.72215
▁expect	-9.72221
▁seed	-9.72223
▁spyware	-9.72246
▁weigh	-9.72301
▁leaves	-9.72327
▁holdings	-9.72369
▁living	-9.72381
round	-9.72447
▁rallie	-9.7245
▁forecasts	-9.72539
▁cool	-9.72555
▁ship	-9.72639
▁stem	-9.72668
▁partnership	-9.72717
▁prince	-9.72766
▁word	-9.72806
▁thing	-9.72857
▁witnesses	-9.73046
▁allegations	-9.7309
▁sure	-9.73146
▁really	-9.73199
▁roddick	-9.733
▁enrichment	-9.7331
▁6-3	-9.73317
▁son	-9.73352
▁dozens	-9.73377
▁notebook	-9.73423
▁treatment	-9.73425
▁prevent	-9.73474
▁request	-9.73483
▁patch	-9.73554
▁charles	-9.73598
▁shiite	-9.736
▁considering	-9.73727
▁handheld	-9.73735
▁tigers	-9.73739
▁associates	-9.73853
▁computing	-9.73904
ted	-9.73947
▁votes	-9.74001
▁disease	-9.74026
▁pound	-9.74112
▁allowed	-9.74183
▁district	-9.74196
▁unexpected	-9.74282
▁steps	-9.74288
▁matter	-9.74434
▁strength	-9.74485
▁june	-9.74527
▁10-	-9.74533
▁package	-9.74731
▁defending	-9.74821
▁richard	-9.74932
▁chase	-9.74971
▁retirement	-9.75098
▁sri	-9.75141
▁customer	-9.7528
▁ba	-9.75283
▁narrow	-9.7539
▁crucial	-9.75392
▁blasts	-9.75397
▁levels	-9.75401
▁hearing	-9.75471
▁motors	-9.75628
▁familiar	-9.75692
▁themselves	-9.75692
▁core	-9.75702
▁candidates	-9.75709
▁currency	-9.75999
▁dual	-9.76016
▁banking	-9.7607
▁love	-9.76235
▁anaheim	-9.76299
▁grew	-9.763
▁atomic	-9.76301
▁emergency	-9.76307
▁via	-9.76341
▁often	-9.76442
▁class	-9.7657
▁tennessee	-9.76604
um	-9.76637
▁ny	-9.76775
▁bangladesh	-9.76856
▁twins	-9.76895
▁marathon	-9.76934
▁quit	-9.77035
▁independent	-9.77046
▁scores	-9.77398
▁grow	-9.77399
▁robert	-9.77412
▁sbc	-9.77436
▁telecom	-9.77446
▁areas	-9.7745
▁unions	-9.7747
▁shock	-9.77506
▁gunmen	-9.77527
▁500	-9.77608
▁ministers	-9.77653
▁iraqis	-9.77747
▁standards	-9.77796
ra	-9.77815
▁ninth	-9.77833
▁maintain	-9.77835
▁bodies	-9.77837
▁lawyers	-9.77868
ba	-9.77952
▁commissioner	-9.77952
new	-9.7801
▁supercomputer	-9.7805
▁alex	-9.78087
▁piracy	-9.78229
▁syria	-9.78301
▁successful	-9.78339
▁mine	-9.78393
▁abuse	-9.78416
▁present	-9.78446
▁hole	-9.78658
▁v	-9.7868
▁camera	-9.78704
▁allawi	-9.78764
▁wales	-9.78837
▁linked	-9.78886
▁appeals	-9.79016
▁radical	-9.7908
▁developer	-9.79167
▁cutting	-9.7922
▁jan	-9.79238
▁plot	-9.79342
▁withdrawal	-9.79433
▁mutual	-9.7945
▁managers	-9.7951
▁headed	-9.7952
lecommunications	-9.7955
▁trail	-9.79595
▁info	-9.79695
▁century	-9.79783
▁climb	-9.79795
▁philippines	-9.79833
▁seems	-9.7991
▁strikes	-9.7998
▁beyond	-9.8002
▁martha	-9.8002
▁swiss	-9.8002
▁bills	-9.801
▁veteran	-9.8029
▁documents	-9.80302
ta	-9.80308
▁brussels	-9.80337
▁egyptian	-9.80353
▁quickly	-9.80434
▁previously	-9.80501
▁prepared	-9.80537
▁highs	-9.80553
▁links	-9.80637
▁cities	-9.80671
▁6-2	-9.80676
▁approach	-9.80718
▁cuba	-9.80833
▁significant	-9.80855
▁created	-9.80873
▁magazine	-9.80973
▁extension	-9.80973
▁pacers	-9.81002
▁hamm	-9.81017
ro	-9.81063
▁changed	-9.81076
▁picture	-9.81274
ray	-9.81287
▁jeff	-9.81291
no	-9.8131
▁opens	-9.8131
▁plus	-9.81354
▁prosecutors	-9.8148
▁prepar	-9.81526
be	-9.81598
▁solid	-9.81624
▁cover	-9.81648
▁majority	-9.8169
▁declared	-9.81698
▁completed	-9.81825
▁missed	-9.81889
▁child	-9.8189
▁rout	-9.81902
▁delays	-9.81928
▁activity	-9.81939
▁prove	-9.81964
▁related	-9.81982
▁wave	-9.82029
▁redskins	-9.82257
▁analyst	-9.82263
▁wife	-9.82264
▁pacific	-9.82375
▁agent	-9.82459
▁doubt	-9.8257
▁nortel	-9.82594
▁donald	-9.82599
▁turns	-9.8268
▁sa	-9.8272
▁foot	-9.82814
▁rockets	-9.82826
▁suspects	-9.82899
▁beckham	-9.82906
▁speculation	-9.82907
▁worm	-9.82909
▁regional	-9.83092
▁flag	-9.8313
▁smaller	-9.83225
long	-9.83231
▁receiver	-9.83261
▁spend	-9.8328
▁lack	-9.83298
ny	-9.83327
im	-9.83342
▁conditions	-9.8336
par	-9.83431
▁starts	-9.83492
▁finished	-9.83521
▁denied	-9.83558
▁pga	-9.8358
▁allows	-9.83612
▁apparently	-9.83644
il	-9.83654
▁suspend	-9.83681
▁putting	-9.83702
▁alan	-9.83713
▁$2	-9.83745
▁looked	-9.83831
▁jumped	-9.83844
▁zimbabwe	-9.83873
▁person	-9.83877
▁option	-9.83882
▁dramatic	-9.83889
▁response	-9.8389
▁preview	-9.83891
▁benefit	-9.8391
▁1-0	-9.83938
▁forest	-9.83945
▁die	-9.84012
ship	-9.84041
▁inter	-9.84065
▁sought	-9.8409
▁natural	-9.84097
▁chart	-9.8418
▁speech	-9.84196
▁perfect	-9.84219
▁images	-9.84243
▁governor	-9.84245
▁bought	-9.8428
▁voted	-9.8446
▁2-	-9.8449
▁opportunity	-9.84545
▁denver	-9.84545
▁jury	-9.84546
▁dies	-9.84647
▁feature	-9.84735
▁finding	-9.84803
▁semi	-9.84922
▁parties	-9.84942
▁peter	-9.8495
▁overtime	-9.84961
▁appear	-9.85058
▁certain	-9.85077
▁$3	-9.85109
▁nigerian	-9.85114
not	-9.85125
▁shooting	-9.8513
▁recover	-9.85218
▁earthquake	-9.85258
▁records	-9.85336
▁prisoners	-9.85336
▁trouble	-9.85346
▁setting	-9.85388
▁adding	-9.8554
▁rooney	-9.85541
▁gone	-9.85623
▁chris	-9.85737
rd	-9.8575
▁boy	-9.85756
0000	-9.85824
▁martinez	-9.85878
▁schilling	-9.859
▁eighth	-9.85937
▁keeps	-9.86003
▁indiana	-9.86064
▁fan	-9.86131
ex	-9.86171
▁joined	-9.86355
▁reason	-9.86489
▁indianapolis	-9.86548
▁kidnappers	-9.86548
▁priority	-9.86551
▁tiny	-9.86572
▁3-0	-9.86572
▁80	-9.8664
▁terrorists	-9.8664
▁goods	-9.86664
▁hussein	-9.86818
2)	-9.86857
▁disaster	-9.86965
▁turning	-9.87085
▁auburn	-9.87225
▁signal	-9.87233
▁barry	-9.87301
▁address	-9.87332
ley	-9.87351
▁sir	-9.8736
▁beach	-9.87444
▁journal	-9.87492
▁deaths	-9.87534
▁ravens	-9.87565
▁hamid	-9.87566
▁kev	-9.87612
▁3-	-9.87654
▁believed	-9.87883
▁books	-9.88002
▁account	-9.8805
▁slide	-9.88062
tech	-9.88156
▁scotland	-9.88249
men	-9.88357
▁effect	-9.88358
▁ice	-9.88428
▁lanka	-9.88441
▁stronger	-9.88468
▁flaw	-9.88541
▁beta	-9.88548
▁bombings	-9.88552
html	-9.88593
▁clashes	-9.88647
▁rescue	-9.88791
▁hills	-9.88877
nd	-9.88906
▁ga	-9.88934
▁unbeaten	-9.88937
▁cassini	-9.88937
▁pedro	-9.88937
▁wenger	-9.88937
▁advantage	-9.88938
▁always	-9.88939
▁comments	-9.88991
▁silicon	-9.89035
▁roundup	-9.89057
▁database	-9.89063
▁remote	-9.89152
ier	-9.89213
▁breaking	-9.89219
▁ads	-9.89238
generation	-9.89247
▁vodafone	-9.89287
▁cents	-9.89294
▁2002	-9.89298
▁property	-9.89302
▁laden	-9.89324
▁solution	-9.89418
-10	-9.89486
▁qaeda	-9.89531
▁frances	-9.89554
la	-9.89567
▁crashed	-9.89622
▁compete	-9.89631
▁milan	-9.89634
▁motion	-9.89669
▁colts	-9.89683
▁gear	-9.89723
▁failure	-9.8977
▁broken	-9.89829
▁improved	-9.89949
▁cincinnati	-9.89979
▁newcastle	-9.89996
▁tackle	-9.90009
▁1:	-9.90098
▁ring	-9.90164
▁fair	-9.90215
▁blame	-9.90236
▁bomber	-9.90285
▁fa	-9.90317
rs	-9.90319
▁involved	-9.90436
▁rich	-9.90506
▁deliver	-9.90606
▁cold	-9.90625
▁activities	-9.90679
▁phelps	-9.90679
▁berlin	-9.9068
▁split	-9.90695
▁bigley	-9.90748
▁centre	-9.90844
▁machine	-9.9087
▁situation	-9.91031
▁tampa	-9.91031
▁hardware	-9.9104
▁comeback	-9.91063
▁tries	-9.91078
▁ways	-9.91115
▁regular	-9.91257
▁orbit	-9.91377
▁taliban	-9.91403
▁plead	-9.91416
▁directors	-9.9142
▁democracy	-9.9147
▁gather	-9.91479
▁releases	-9.91512
▁pitch	-9.91518
▁carrying	-9.91594
▁safe	-9.91596
sharing	-9.91721
▁argentina	-9.91739
▁islamabad	-9.91739
▁steelers	-9.91774
▁fly	-9.91821
▁limited	-9.91869
▁commerce	-9.9187
▁social	-9.92067
▁turkish	-9.92096
▁seoul	-9.92096
▁supporters	-9.92105
▁carlos	-9.92108
▁coup	-9.92223
▁lions	-9.92319
▁2001	-9.92367
▁shrine	-9.92453
▁separate	-9.92478
▁leadership	-9.92502
▁venezuela	-9.92659
▁believes	-9.92706
▁slash	-9.92707
▁par	-9.92746
▁craig	-9.92807
▁labour	-9.92812
▁nationwide	-9.92818
▁rather	-9.92826
▁seconds	-9.92827
▁attention	-9.92828
am	-9.92855
▁bit	-9.92909
▁sentenced	-9.92962
de	-9.93023
▁celebrate	-9.93061
▁deals	-9.93089
▁soft	-9.93144
▁capsule	-9.93171
▁lewis	-9.93171
▁movies	-9.93195
▁sky	-9.93243
▁traditional	-9.93335
▁fox	-9.9335
▁rebounds	-9.93412
▁lawmakers	-9.9353
▁matches	-9.93678
▁website	-9.93757
▁nobel	-9.93901
▁packers	-9.93935
▁crown	-9.93957
▁county	-9.9401
▁breaks	-9.94053
▁mr	-9.94118
▁sells	-9.94205
em	-9.94255
▁choice	-9.94259
▁citigroup	-9.94274
▁begun	-9.94283
▁holy	-9.9436
sym	-9.94413
▁collapse	-9.94434
lo	-9.94494
▁vehicle	-9.94517
▁hear	-9.94583
▁gap	-9.94608
▁motorola	-9.94624
▁unlikely	-9.94649
ia	-9.94734
▁kind	-9.94957
▁inquiry	-9.94989
▁soar	-9.95095
ma	-9.95356
age	-9.95385
▁golden	-9.95413
▁increases	-9.95496
▁escape	-9.95497
▁joe	-9.95583
▁surged	-9.95585
▁pushed	-9.95592
▁instant	-9.95596
ting	-9.95723
▁ottawa	-9.95725
▁investigating	-9.95726
▁en	-9.95729
▁morgan	-9.95787
▁immediately	-9.95807
▁doing	-9.95812
▁admitted	-9.95838
▁parent	-9.96015
▁confident	-9.96089
▁similar	-9.96096
▁continuing	-9.96096
▁scoring	-9.96136
▁leg	-9.96176
▁cap	-9.96193
▁era	-9.96195
▁fees	-9.962
▁crimes	-9.96237
▁shell	-9.96284
▁renewed	-9.96341
▁investor	-9.96409
▁premiership	-9.96477
▁shi	-9.96536
▁entered	-9.96601
eeded	-9.96602
▁promised	-9.96625
▁hunt	-9.96786
▁bolster	-9.96841
▁agencies	-9.9687
▁iranian	-9.96879
▁coli	-9.96883
▁disappointing	-9.96903
▁atlantic	-9.96965
li	-9.96973
▁drops	-9.9705
▁sued	-9.97055
▁nets	-9.97118
▁$5	-9.9712
▁uefa	-9.97215
▁housing	-9.97217
one	-9.97222
▁self	-9.97223
▁lee	-9.97241
▁fish	-9.97276
▁alive	-9.97381
▁championships	-9.97391
▁overnight	-9.97629
▁broker	-9.97654
(	-9.97735
over	-9.97769
▁plays	-9.97785
▁malaysia	-9.97828
▁kmart	-9.97997
▁2-1	-9.98059
▁ma	-9.98173
▁jr	-9.98294
▁alert	-9.98299
▁criticism	-9.9835
▁protocol	-9.98355
▁declined	-9.98411
▁publisher	-9.98431
▁drives	-9.98461
et	-9.98586
▁resigned	-9.9865
▁explosives	-9.98666
▁lawyer	-9.98689
▁piece	-9.98757
ist	-9.98972
▁screen	-9.98977
▁idea	-9.98979
▁officers	-9.9902
▁preliminary	-9.99109
▁violent	-9.99109
▁square	-9.99141
▁pois	-9.99163
▁clean	-9.99166
):	-9.99245
▁heads	-9.99263
▁suggest	-9.99298
▁2004.	-9.99305
▁voip	-9.99524
▁touch	-9.99527
▁300	-9.99538
▁table	-9.99549
▁wayne	-9.99563
▁hike	-9.99566
rmed	-9.99613
▁frank	-9.99665
▁soaring	-9.99773
▁greater	-9.99786
▁professional	-9.99869
▁refugee	-9.99875
▁caught	-9.99882
▁su	-9.99885
▁carter	-9.99933
▁remaining	-10.001
▁widely	-10.001
▁port	-10.0014
core	-10.0017
dow	-10.0021
ard	-10.0022
▁adobe	-10.0026
▁planes	-10.0027
▁deputy	-10.0027
infoworld	-10.0034
side	-10.0038
▁lineup	-10.004
ite	-10.004
ay	-10.0044
▁words	-10.0055
▁lives	-10.0056
▁produce	-10.0061
finance	-10.0063
▁helps	-10.0064
▁jersey	-10.0065
▁authority	-10.0065
▁solar	-10.0067
▁father	-10.0068
▁spring	-10.0072
▁technical	-10.0091
▁sound	-10.0092
▁45	-10.0096
▁myanmar	-10.0104
▁scientific	-10.0104
▁miller	-10.0106
▁acquired	-10.0106
▁capacity	-10.0109
▁paper	-10.0112
▁pt	-10.0117
▁counter	-10.0121
go	-10.0128
▁difficult	-10.0129
▁suspect	-10.0132
▁newsfactor	-10.0143
▁chechen	-10.0143
▁construction	-10.0143
▁vendor	-10.0144
▁athletics	-10.0144
▁asks	-10.0148
▁lows	-10.0149
▁favor	-10.017
▁throw	-10.0181
air	-10.0182
▁steady	-10.0182
▁thomas	-10.0183
▁status	-10.0183
▁jackson	-10.0183
newsfactor	-10.0183
etary	-10.0184
▁hu	-10.0186
▁count	-10.0197
ought	-10.02
▁read	-10.0204
do	-10.0216
▁vendors	-10.0221
▁vietnam	-10.0222
▁recording	-10.0223
▁slip	-10.0224
▁answer	-10.0224
▁channel	-10.0225
▁sharing	-10.0225
▁ron	-10.0232
▁overall	-10.0234
▁songs	-10.0237
▁fields	-10.0238
▁wasn	-10.0258
▁dr	-10.0258
▁restructuring	-10.0261
▁70	-10.0261
▁passenger	-10.0264
▁kodak	-10.0301
▁brian	-10.0301
▁brazilian	-10.0302
▁gary	-10.0305
▁edwards	-10.0306
spam	-10.0308
▁jobless	-10.031
▁dan	-10.031
▁officially	-10.0322
▁seized	-10.0323
)--	-10.0325
▁worker	-10.0332
▁sub	-10.0333
▁waiting	-10.0335
▁backs	-10.0339
▁sharapova	-10.0341
▁jewi	-10.0341
▁sears	-10.0343
▁patients	-10.0344
▁vehicles	-10.0354
▁banned	-10.0362
▁means	-10.0364
▁carry	-10.0365
volving	-10.0381
▁halo	-10.0382
▁dangerous	-10.0383
▁militia	-10.0386
election	-10.0396
▁sides	-10.0398
▁lebanon	-10.0421
▁trigger	-10.0421
▁kobe	-10.0421
▁scott	-10.0427
▁41	-10.0428
▁spammers	-10.0455
▁anniversary	-10.0461
▁barcelona	-10.0461
▁brawl	-10.0461
▁shipping	-10.0462
▁spitzer	-10.0462
▁els	-10.0463
▁jack	-10.0464
▁con	-10.0476
▁invest	-10.0479
▁studios	-10.0482
▁walt	-10.0483
▁entire	-10.0489
▁roll	-10.049
▁captured	-10.0491
▁ko	-10.0493
▁agassi	-10.0502
▁larry	-10.0502
▁fix	-10.0509
▁broadcast	-10.0515
▁hang	-10.0521
▁struggle	-10.0529
▁pain	-10.0533
▁hackers	-10.0533
▁palm	-10.054
▁laws	-10.0541
▁vienna	-10.0542
▁jeanne	-10.0543
▁briton	-10.0543
▁convicted	-10.0547
ham	-10.055
▁mosque	-10.055
▁jacques	-10.0551
▁gordon	-10.0584
▁capture	-10.0584
▁legislation	-10.0585
▁cyber	-10.0586
▁relations	-10.0594
▁evening	-10.0596
▁bob	-10.0609
▁challenges	-10.0609
ko	-10.0613
▁franchise	-10.0624
▁vijay	-10.0624
▁navy	-10.0625
general	-10.0627
▁founder	-10.0631
▁vaccine	-10.0634
▁briefly	-10.0636
▁chances	-10.0636
▁resources	-10.0637
ha	-10.0642
lookup	-10.0655
▁symantec	-10.0665
▁blockbuster	-10.0665
▁mariners	-10.0666
ized	-10.0673
▁le	-10.0686
▁lifted	-10.0687
▁marines	-10.0691
▁original	-10.0695
▁schools	-10.0698
▁ancient	-10.0707
▁pfizer	-10.0707
sadr	-10.071
▁snow	-10.0717
down	-10.0728
▁pa	-10.0731
▁attacked	-10.0731
▁desert	-10.0733
▁fill	-10.0741
▁failing	-10.0747
▁jordan	-10.0748
▁grid	-10.0748
▁circuit	-10.0751
▁matt	-10.0755
▁developers	-10.0763
cost	-10.0766
▁fact	-10.0768
▁disc	-10.0769
▁democrats	-10.0776
▁pop	-10.0782
▁resignation	-10.079
▁vows	-10.0798
▁brain	-10.0823
season	-10.0824
▁squad	-10.0832
▁gaming	-10.0832
▁everything	-10.0832
▁improving	-10.0832
▁denies	-10.0832
▁messaging	-10.0834
▁pistons	-10.0835
▁defeated	-10.0842
▁reaches	-10.0848
rich	-10.0871
▁summary	-10.0874
▁injuries	-10.0875
▁arabia	-10.0877
▁playoffs	-10.0893
▁ben	-10.0895
▁environmental	-10.0895
▁works	-10.0904
▁threatening	-10.0907
▁bo	-10.0907
▁spread	-10.091
▁pole	-10.0911
▁creat	-10.0915
▁700	-10.0919
▁viruses	-10.0923
▁dip	-10.0924
▁chiefs	-10.0935
▁jailed	-10.0937
▁seat	-10.0947
▁ken	-10.0953
▁user	-10.0954
▁identity	-10.0958
▁arctic	-10.0958
▁34	-10.0958
▁showdown	-10.0961
▁mean	-10.0971
▁ability	-10.0971
▁girl	-10.0978
▁feel	-10.0978
▁events	-10.0979
▁mayor	-10.0988
▁titans	-10.0989
▁refused	-10.099
held	-10.0994
▁measures	-10.0996
▁announc	-10.1
▁drove	-10.1001
▁halliburton	-10.1001
▁ankle	-10.1001
▁pervez	-10.1001
▁genesis	-10.1001
ti	-10.1001
▁fda	-10.1003
▁thai	-10.1004
ism	-10.101
▁quick	-10.1019
▁manufacturer	-10.1021
▁winds	-10.1026
▁experience	-10.1038
▁electric	-10.1039
▁hill	-10.1043
▁ncaa	-10.1044
▁fcc	-10.1049
▁factory	-10.1049
ious	-10.1054
▁critics	-10.1057
▁quite	-10.1058
▁shoppers	-10.1059
▁ray	-10.1062
▁strengthen	-10.1068
▁promises	-10.1076
▁signing	-10.1076
▁newly	-10.1084
▁clinch	-10.1086
▁blackberry	-10.1086
▁taxes	-10.1103
▁providers	-10.1106
▁ill	-10.1112
▁education	-10.1126
▁eased	-10.1127
▁orleans	-10.1129
▁stern	-10.113
▁semifinals	-10.1134
▁box	-10.1155
▁resolve	-10.1158
▁doubled	-10.1163
▁sadr	-10.1171
▁path	-10.1172
▁analysis	-10.1173
▁units	-10.1174
▁bbc	-10.1175
▁postseason	-10.1175
▁ranking	-10.1182
lin	-10.1186
▁mail	-10.1188
▁art	-10.1191
▁discount	-10.1195
▁internal	-10.1203
▁slump	-10.1208
▁$	-10.121
ge	-10.1214
▁tumble	-10.1216
related	-10.1222
▁export	-10.1229
▁environment	-10.1236
▁moment	-10.124
▁considered	-10.1255
▁silver	-10.1257
▁reporting	-10.1259
▁pictures	-10.1264
▁usa	-10.128
▁switch	-10.128
cola	-10.1286
▁di	-10.1292
▁combat	-10.13
▁surprising	-10.1304
▁perhaps	-10.1304
▁chile	-10.1304
▁henman	-10.1304
▁successor	-10.1308
▁foundation	-10.131
▁usual	-10.1311
▁siege	-10.1323
▁represent	-10.1328
▁mountain	-10.1328
▁suspension	-10.1329
▁dismissed	-10.1329
▁boom	-10.1336
▁brief	-10.1343
lew	-10.1343
▁possibly	-10.1348
▁tentative	-10.1348
▁spaceshipone	-10.1349
▁lake	-10.1349
▁cooperation	-10.1349
▁politics	-10.1356
▁33	-10.1361
▁friends	-10.1366
▁loses	-10.1367
▁condition	-10.1367
per	-10.1375
▁cast	-10.1375
ac	-10.1375
▁exit	-10.1376
▁tied	-10.1383
▁tape	-10.1386
▁email	-10.1394
▁im	-10.1399
▁processors	-10.1399
▁figure	-10.14
▁civilians	-10.1401
▁minute	-10.1404
▁wind	-10.1407
▁emerged	-10.1409
▁crime	-10.1424
▁ip	-10.1426
▁chirac	-10.1437
▁vegas	-10.1437
▁landmark	-10.1437
▁everyone	-10.1438
▁bottom	-10.1438
▁april	-10.1438
▁driving	-10.1439
million	-10.1442
▁freeze	-10.1447
▁messages	-10.1454
▁trend	-10.1465
▁jays	-10.1465
ever	-10.147
mo	-10.1472
▁subscribers	-10.1475
▁mind	-10.1475
▁shots	-10.1478
▁envoy	-10.1481
▁either	-10.1481
▁bobby	-10.1482
▁bigger	-10.1483
shot	-10.1483
▁sunni	-10.1484
▁receive	-10.1486
by	-10.1489
▁driven	-10.1497
▁colombia	-10.1511
▁graphics	-10.1511
▁kim	-10.1518
▁tops	-10.1525
▁outsourcing	-10.1526
▁ongoing	-10.1526
▁arthritis	-10.1527
▁kofi	-10.1527
▁programme	-10.1529
▁fighters	-10.1532
▁truck	-10.1532
dollar	-10.1533
▁doping	-10.1535
▁injur	-10.1537
▁traded	-10.1547
▁bridge	-10.1563
▁flying	-10.1569
qaida	-10.1571
▁serena	-10.1571
▁modest	-10.1571
▁regard	-10.1572
▁offset	-10.1572
▁strategic	-10.1572
▁communist	-10.1573
▁photos	-10.1573
▁song	-10.1579
▁additional	-10.158
▁serve	-10.1581
tada	-10.1583
▁weaker	-10.159
▁fate	-10.1591
ian	-10.1592
▁practices	-10.1602
▁scientist	-10.1605
▁onto	-10.1616
▁alitalia	-10.1616
▁toyota	-10.1616
▁ryan	-10.1617
▁happy	-10.1618
▁7-6	-10.1619
▁corruption	-10.1619
▁solaris	-10.1623
▁64	-10.1625
▁throughout	-10.1625
▁ii	-10.1628
▁tens	-10.1631
▁ali	-10.1633
▁connection	-10.165
▁nepal	-10.1651
▁astronauts	-10.1659
▁columbia	-10.1664
▁faced	-10.1668
▁journalists	-10.1673
▁65	-10.1679
▁limit	-10.1688
▁surface	-10.1688
▁libya	-10.1692
ina	-10.1694
▁dozen	-10.1698
▁massachusetts	-10.1707
▁overseas	-10.1707
finals	-10.171
▁cowboys	-10.1724
▁expands	-10.1728
▁river	-10.1731
▁mi	-10.1745
▁band	-10.1749
▁playstation	-10.1753
▁lockout	-10.1754
▁kyoto	-10.1755
▁preseason	-10.1755
▁fellow	-10.1755
▁gene	-10.1758
▁browns	-10.1765
▁32	-10.1769
▁contain	-10.1784
id	-10.1794
▁passengers	-10.1795
▁shanghai	-10.1799
▁mosul	-10.1799
▁anyone	-10.1802
▁del	-10.1804
na	-10.1807
ant	-10.181
▁flood	-10.1818
▁gov	-10.1836
▁pipeline	-10.1836
▁networking	-10.1842
▁reflect	-10.1843
▁netherlands	-10.1846
▁inventories	-10.1846
▁brokerage	-10.1846
▁opponents	-10.1853
▁diplomats	-10.186
▁6-1	-10.1866
▁expanding	-10.1881
pa	-10.1881
▁brother	-10.1885
▁retain	-10.1886
▁insisted	-10.1887
ka	-10.1891
▁institute	-10.1892
▁universal	-10.1892
▁maryland	-10.1893
▁z	-10.1893
▁retire	-10.1895
strong	-10.19
▁foods	-10.1908
▁pct	-10.1909
▁2005.	-10.1924
▁emba	-10.1926
▁bull	-10.1929
▁resigns	-10.193
▁enjoy	-10.193
▁assistant	-10.193
▁hd	-10.1936
▁streets	-10.1937
▁caribbean	-10.1939
▁ferguson	-10.1939
▁treasuries	-10.1939
▁marlins	-10.1939
▁orlando	-10.1939
▁antonio	-10.1939
▁drivers	-10.194
▁illinois	-10.194
▁coca	-10.1948
▁kick	-10.1952
▁cleared	-10.196
ner	-10.1968
▁curb	-10.1981
▁accident	-10.1982
▁impose	-10.1983
▁contracts	-10.1984
▁heard	-10.1986
▁espn	-10.1986
▁las	-10.1992
▁floods	-10.1996
▁couple	-10.1998
▁follow	-10.2001
serving	-10.2016
ttled	-10.2019
▁hour	-10.2021
▁task	-10.2026
▁suite	-10.203
▁referendum	-10.2033
▁telescope	-10.2033
▁peer	-10.2055
▁southeast	-10.2056
▁aside	-10.2058
▁38	-10.2066
▁spin	-10.2068
▁dc	-10.2073
▁pioneer	-10.2074
▁gained	-10.2074
▁insurgent	-10.2076
▁sentiment	-10.208
▁anything	-10.2081
▁drew	-10.2081
▁dividend	-10.2081
da	-10.2096
▁praise	-10.2113
▁highly	-10.2116
▁bitter	-10.2116
▁pilot	-10.2128
▁controversy	-10.2128
▁mclennan	-10.2128
▁presence	-10.2128
▁jean	-10.213
▁overhaul	-10.213
▁holes	-10.2144
▁arena	-10.2149
▁predicted	-10.2161
▁helicopter	-10.2173
▁bronze	-10.2176
▁convoy	-10.2176
▁hollinger	-10.2176
▁stopped	-10.2177
▁knew	-10.2177
making	-10.2183
▁cameras	-10.2188
▁mini	-10.2189
▁pirates	-10.2191
▁amount	-10.2192
▁transfer	-10.2218
▁blamed	-10.222
▁conduct	-10.2221
▁ceremony	-10.2224
▁palmone	-10.2225
▁assembly	-10.2226
▁suggests	-10.2228
▁vikings	-10.2238
▁calm	-10.2239
▁provided	-10.2243
▁await	-10.2252
▁carrie	-10.2255
▁ensure	-10.227
▁subject	-10.2272
▁rome	-10.2273
▁mining	-10.2281
▁downloads	-10.2291
▁talking	-10.2292
▁justin	-10.2296
▁accounts	-10.2306
▁austria	-10.2306
▁apparent	-10.2308
▁trust	-10.231
▁90	-10.2312
▁coaches	-10.2312
▁longhorn	-10.232
▁qualifier	-10.232
▁harmony	-10.2321
▁knicks	-10.2321
▁5-	-10.2329
▁hotels	-10.2329
vo	-10.2332
▁command	-10.2336
▁55	-10.2348
va	-10.236
▁reforms	-10.236
▁carl	-10.2362
▁retreat	-10.237
▁agents	-10.2371
▁jim	-10.2371
▁however	-10.2373
top	-10.2379
▁hassan	-10.2384
▁boxing	-10.2393
▁andre	-10.2401
▁fierce	-10.2406
▁ousted	-10.2408
ut	-10.2414
▁true	-10.2416
▁headquarters	-10.2419
▁cancel	-10.2419
▁ocean	-10.2421
av	-10.243
▁xbox	-10.2436
▁shoulder	-10.2439
▁affect	-10.2462
▁infrastructure	-10.2468
▁kazaa	-10.2468
▁docomo	-10.2468
▁mauresmo	-10.2469
▁honor	-10.247
▁andrew	-10.247
▁northeast	-10.247
▁casino	-10.247
▁celtic	-10.2471
▁engineers	-10.2476
▁larger	-10.2481
▁protests	-10.2489
▁brands	-10.2494
▁pledge	-10.2496
▁climbed	-10.2502
20	-10.2503
▁returning	-10.2508
bit	-10.2512
▁easier	-10.2517
▁extreme	-10.2517
▁entry	-10.252
▁alternative	-10.252
awaited	-10.2529
▁engineer	-10.2552
gb	-10.2557
▁closely	-10.2566
▁chavez	-10.2567
▁palace	-10.2567
▁cheney	-10.2568
▁sweden	-10.2571
▁promote	-10.2572
▁gun	-10.2573
▁bids	-10.2576
▁indians	-10.2592
▁guide	-10.2596
▁sentence	-10.2601
▁wonder	-10.2603
▁respond	-10.2603
▁warnings	-10.2604
▁brings	-10.261
▁fun	-10.2612
▁equity	-10.2619
hit	-10.2639
▁allies	-10.2642
▁maria	-10.2642
▁pounds	-10.2644
▁measure	-10.2655
▁door	-10.266
▁clemens	-10.2667
▁tsunami	-10.2667
▁harry	-10.2668
▁stepped	-10.2671
▁dna	-10.2673
▁nec	-10.2675
▁client	-10.2677
▁woes	-10.2683
▁anticipated	-10.2688
▁wr	-10.2691
▁reduced	-10.2695
▁manufacturers	-10.2696
▁payments	-10.2698
▁earn	-10.271
▁seemed	-10.2718
▁deutsch	-10.2718
▁glazer	-10.2718
▁eclipse	-10.2718
▁penalty	-10.2718
▁osama	-10.2718
mb	-10.2719
▁models	-10.2734
▁violat	-10.2738
▁plants	-10.2739
▁rape	-10.2755
▁dominated	-10.2758
▁rovers	-10.2759
▁burn	-10.2765
▁emerging	-10.2769
▁worried	-10.2769
▁text	-10.2769
▁beslan	-10.2769
▁orange	-10.277
▁distribution	-10.2771
▁10000	-10.2777
meter	-10.2784
▁explosions	-10.2788
▁successfully	-10.279
▁pleaded	-10.2794
▁suffering	-10.2799
▁magic	-10.2802
op	-10.2805
▁whole	-10.2808
▁tri	-10.2811
▁triumph	-10.2819
▁crackdown	-10.282
▁fails	-10.2821
▁projects	-10.2822
▁enable	-10.2827
▁raptors	-10.2827
▁parents	-10.2834
▁expanded	-10.2836
▁retired	-10.2843
▁solutions	-10.2851
ty	-10.2852
▁dominate	-10.2867
▁deploy	-10.2869
▁aviation	-10.2871
▁feared	-10.2873
▁famous	-10.2873
▁shipments	-10.2877
▁blog	-10.2886
▁setback	-10.2891
▁investigators	-10.2891
▁backup	-10.2891
▁bounce	-10.2893
▁fit	-10.2893
tropical	-10.2899
▁fires	-10.2911
▁license	-10.2917
hill	-10.2919
space	-10.2919
▁families	-10.2922
▁financing	-10.2922
▁schumacher	-10.2922
▁gateway	-10.2923
▁remember	-10.2923
▁siemens	-10.2923
▁slipped	-10.2926
▁raiders	-10.2928
▁watched	-10.2934
▁favorite	-10.2934
▁helens	-10.2935
▁owen	-10.2936
-1	-10.2941
▁movement	-10.2941
▁bond	-10.2949
▁spurs	-10.2952
▁ge	-10.2958
card	-10.2961
▁promise	-10.2966
▁clinton	-10.2974
▁gartner	-10.2974
▁providing	-10.2974
▁responsible	-10.2974
▁invasion	-10.2975
▁medals	-10.2975
▁em	-10.2978
▁industries	-10.2982
▁prospect	-10.2985
▁homeland	-10.2986
▁maybe	-10.2988
▁eli	-10.2988
▁heavyweight	-10.2988
level	-10.2988
▁mother	-10.2994
▁commander	-10.2997
▁valley	-10.3002
hitting	-10.3005
like	-10.302
▁adopt	-10.3024
▁coal	-10.3025
▁charlotte	-10.3026
▁manmohan	-10.3026
▁charley	-10.3027
▁imac	-10.3029
▁phishing	-10.3036
▁page	-10.3039
▁horse	-10.3042
▁writer	-10.3047
▁undergo	-10.3062
▁learn	-10.3067
▁trump	-10.3076
▁multiple	-10.3078
▁hamilton	-10.3079
▁phoenix	-10.3079
▁subsidiary	-10.3079
▁territory	-10.3079
▁imports	-10.3085
▁backing	-10.3086
▁lowest	-10.309
▁expert	-10.3094
▁repair	-10.3097
▁busy	-10.3103
▁treat	-10.3103
▁pitched	-10.3105
▁revolution	-10.313
▁memphis	-10.3131
▁remove	-10.3131
▁agenda	-10.3131
▁relationship	-10.3131
ol	-10.3132
▁hail	-10.3132
▁greatest	-10.3137
▁attract	-10.3138
▁ra	-10.314
▁thatcher	-10.3141
he	-10.3143
ey	-10.3144
▁individual	-10.3148
▁initiative	-10.3148
▁delivered	-10.3159
▁felt	-10.3172
▁lab	-10.3172
▁plea	-10.3173
▁batter	-10.3179
▁sometime	-10.3179
▁netscape	-10.3184
▁seahawks	-10.3184
▁possibility	-10.3184
▁regain	-10.3184
▁sluggish	-10.3184
▁democrat	-10.3186
bo	-10.3187
▁rebound	-10.3192
▁3000	-10.3195
▁spirit	-10.3202
▁lure	-10.3205
ir	-10.3223
▁effective	-10.3231
▁pentagon	-10.3237
▁henry	-10.3238
▁produced	-10.3247
▁anger	-10.325
▁shareholder	-10.3257
▁detail	-10.3257
▁usc	-10.3258
▁language	-10.3263
hour	-10.3273
▁flaws	-10.3273
▁30-	-10.3277
▁seem	-10.3282
▁encourage	-10.329
▁curt	-10.3292
ish	-10.3295
▁insurers	-10.3298
▁flow	-10.3301
qaeda	-10.3306
foot	-10.3306
▁representatives	-10.3313
▁marine	-10.332
▁tap	-10.3326
▁arrives	-10.3328
ending	-10.3345
▁anthony	-10.3345
▁boycott	-10.3345
▁religious	-10.3345
▁hiring	-10.3345
▁reality	-10.3349
▁funding	-10.3352
▁accus	-10.3355
▁monitor	-10.3356
▁compared	-10.336
▁muslims	-10.3361
▁separatist	-10.3365
▁writes	-10.3367
▁payment	-10.3375
▁cal	-10.3393
▁eisner	-10.3399
▁clothing	-10.3399
▁gasoline	-10.3399
▁safin	-10.3399
▁lakers	-10.3399
▁guinea	-10.34
▁monthly	-10.3408
▁risks	-10.3409
▁discovery	-10.341
▁landing	-10.3411
▁estimated	-10.3416
rate	-10.3419
▁supplier	-10.342
▁prosecutor	-10.3423
▁contest	-10.3425
▁sideline	-10.3426
▁illegally	-10.3433
▁reasons	-10.344
ip	-10.345
fire	-10.345
▁lycos	-10.3453
▁stephen	-10.3454
▁ballmer	-10.3454
▁competitive	-10.346
▁positions	-10.3467
▁ratings	-10.3474
▁suggested	-10.3474
▁population	-10.3476
▁quake	-10.3476
▁merge	-10.3483
▁offices	-10.3484
▁fossil	-10.3508
▁firing	-10.3508
▁earned	-10.3511
▁2007	-10.3512
ke	-10.3513
▁stands	-10.3513
▁powers	-10.3515
▁fashion	-10.352
▁beef	-10.3522
▁patents	-10.3528
▁1-1	-10.3533
▁string	-10.3534
▁quest	-10.3536
▁15-	-10.3539
▁phil	-10.355
▁competitors	-10.3562
▁itanium	-10.3563
▁tobacco	-10.3563
▁radcliffe	-10.3563
▁mln	-10.3563
▁bln	-10.3563
▁tivo	-10.3563
▁sirius	-10.3563
▁optimistic	-10.3564
que	-10.3565
▁busch	-10.357
▁advances	-10.3572
▁vision	-10.3577
▁slowing	-10.359
▁prospects	-10.3604
▁sense	-10.3607
▁watching	-10.3609
▁celtics	-10.3615
▁protesters	-10.3616
▁abbey	-10.3618
▁rumsfeld	-10.3618
hu	-10.3632
▁couldn	-10.3635
▁blu	-10.3641
▁4-	-10.3642
▁studio	-10.3645
▁handset	-10.3648
▁48	-10.3651
▁updates	-10.3656
▁concerned	-10.366
▁rolls	-10.3663
▁elected	-10.3664
▁worry	-10.3665
▁2008	-10.367
▁margaret	-10.3674
▁commitment	-10.3674
▁tender	-10.3679
inch	-10.3679
▁formally	-10.3688
▁wizards	-10.3689
▁forum	-10.3693
▁astronomers	-10.37
▁letter	-10.3709
▁weight	-10.3715
▁chapter	-10.3729
▁czech	-10.3729
▁optimism	-10.3729
▁particular	-10.3729
▁petroleum	-10.3729
▁policies	-10.3729
▁gymnastics	-10.3729
▁daniel	-10.3729
▁bankrupt	-10.3732
▁confirms	-10.3735
▁wine	-10.3738
▁demanding	-10.3761
▁cases	-10.3767
sized	-10.3773
▁currently	-10.3773
un	-10.3782
▁simple	-10.3783
▁witness	-10.3785
▁kremlin	-10.3786
▁followed	-10.3793
▁spy	-10.3807
▁sit	-10.3812
▁aide	-10.3816
▁jaguar	-10.3816
▁influence	-10.3817
▁succeed	-10.3821
▁reporters	-10.3821
▁settles	-10.3825
▁dump	-10.3835
▁emerge	-10.3836
▁dis	-10.3836
▁chechnya	-10.3842
▁consortium	-10.3842
▁plenty	-10.3843
▁slowdown	-10.3843
▁membership	-10.3843
▁northwest	-10.3844
▁estate	-10.3846
ci	-10.3846
▁materials	-10.3848
▁dust	-10.3849
▁rolled	-10.386
▁danger	-10.3873
▁reading	-10.3877
▁nasdaq	-10.3881
▁speak	-10.3881
▁adrian	-10.3892
▁facility	-10.3899
▁assassination	-10.3899
▁female	-10.3899
▁munich	-10.3899
▁vast	-10.3902
▁cavaliers	-10.3903
▁pool	-10.3904
▁hopeful	-10.3904
▁republicans	-10.3905
▁citizens	-10.391
▁harm	-10.3927
▁write	-10.3929
▁philippine	-10.3934
▁appointed	-10.3938
▁euros	-10.3939
▁islands	-10.3946
▁privately	-10.3952
▁compensation	-10.3956
▁unemployment	-10.3956
▁unprecedented	-10.3956
▁abbas	-10.3956
▁require	-10.3957
minute	-10.3963
▁$55	-10.3964
▁choose	-10.3968
▁$100	-10.3973
cing	-10.3976
▁describ	-10.3977
▁wage	-10.3986
▁pushe	-10.3987
▁modern	-10.3989
citing	-10.3997
▁immediate	-10.4001
▁quiet	-10.4003
▁triple	-10.4005
cbc	-10.4007
▁$4	-10.4008
▁operators	-10.4009
▁ch	-10.4011
ix	-10.4012
▁aren	-10.4013
▁complex	-10.4013
▁davenport	-10.4013
▁garcia	-10.4013
▁cellular	-10.4014
▁provides	-10.4014
▁especially	-10.4014
50	-10.4015
maker	-10.4017
▁infringement	-10.4018
▁formal	-10.4027
▁included	-10.4029
▁accepted	-10.4032
▁76	-10.4032
hi	-10.404
▁meetings	-10.404
▁struggled	-10.4043
▁rays	-10.4046
▁offerings	-10.4049
▁investigate	-10.405
▁mad	-10.4053
tic	-10.4054
▁humans	-10.4071
▁mystery	-10.4071
▁sven	-10.4072
▁transport	-10.4073
▁dick	-10.4075
▁fame	-10.4075
▁quality	-10.4082
▁bt	-10.4082
▁aboard	-10.4084
phone	-10.4091
▁friendly	-10.4096
▁targeted	-10.4101
▁steam	-10.4101
ung	-10.4102
▁ballot	-10.4103
▁appearance	-10.4108
▁stronghold	-10.411
▁loan	-10.411
▁church	-10.4126
idg	-10.4128
▁awards	-10.4128
eyton	-10.4129
▁allen	-10.4129
▁cautious	-10.4129
▁pentium	-10.4129
▁honda	-10.4132
▁ally	-10.4138
▁crack	-10.4139
▁spotlight	-10.4143
▁delivery	-10.415
▁resort	-10.4168
▁restore	-10.4175
▁struggles	-10.4176
▁broncos	-10.4188
▁mcdonald	-10.4188
▁responsibility	-10.4189
▁rfid	-10.4191
▁doubles	-10.4192
▁craft	-10.4192
▁150	-10.4197
▁committed	-10.4197
▁awarded	-10.4199
▁exercise	-10.4199
▁kenne	-10.4201
▁grant	-10.4204
▁arrests	-10.4205
ee	-10.421
▁bcs	-10.4212
▁haven	-10.4216
io	-10.4224
▁effects	-10.4227
▁peru	-10.423
▁stretch	-10.4231
▁revive	-10.4242
▁shown	-10.4245
▁trafford	-10.4247
▁depot	-10.4247
▁refugees	-10.4251
▁abandon	-10.4252
▁everton	-10.4253
▁feet	-10.4254
▁marked	-10.4256
▁storms	-10.4262
▁postponed	-10.4262
▁0	-10.4272
war	-10.4274
ga	-10.4282
mi	-10.4283
▁stick	-10.4284
▁editor	-10.429
▁philips	-10.4294
▁amsterdam	-10.4306
▁breakthrough	-10.4306
well	-10.4306
▁domain	-10.4307
▁momentum	-10.4307
▁peacekeepers	-10.4307
▁creation	-10.4308
▁passing	-10.4315
000	-10.4321
wood	-10.4326
red	-10.4335
▁75	-10.4338
▁wire	-10.434
ahead	-10.434
▁focused	-10.4345
▁trojan	-10.4349
▁scene	-10.4349
▁ticket	-10.4357
▁66	-10.4363
▁buffalo	-10.4365
▁ferrari	-10.4365
▁garden	-10.4365
▁shake	-10.4366
▁sap	-10.4366
▁ds	-10.4366
▁utility	-10.4368
▁ailing	-10.4368
▁crm	-10.4374
▁uses	-10.4376
▁$500	-10.4384
▁loans	-10.4386
zarqawi	-10.4387
ana	-10.4397
▁1.0	-10.4399
▁style	-10.4402
▁engines	-10.4403
▁strained	-10.4405
▁console	-10.4411
▁journalist	-10.4423
▁recommend	-10.4425
▁iowa	-10.4425
▁pursue	-10.4425
▁doubts	-10.4426
▁copies	-10.4426
▁copy	-10.4429
▁warn	-10.443
▁rams	-10.4436
▁2:	-10.4444
▁pledg	-10.4449
▁challenger	-10.4454
▁ho	-10.4455
▁wto	-10.4472
▁peak	-10.4473
▁starter	-10.4474
▁discover	-10.4481
▁disk	-10.4481
▁accord	-10.4483
▁organizations	-10.4483
▁kenya	-10.4484
▁knows	-10.4485
▁cairo	-10.4486
▁connecticut	-10.4486
▁napster	-10.4486
▁supposed	-10.4486
▁1990	-10.4487
▁rugby	-10.4487
world	-10.4488
▁wider	-10.4494
▁800	-10.4498
▁relatives	-10.4525
▁determine	-10.4527
▁meters	-10.4536
▁insist	-10.454
▁easily	-10.4546
▁khartoum	-10.4546
▁angry	-10.4546
▁veritas	-10.4548
▁barely	-10.4549
▁nick	-10.4554
▁wickets	-10.4559
▁engineering	-10.4563
▁dark	-10.4565
▁chad	-10.4567
▁marks	-10.4568
▁bloody	-10.4575
▁gay	-10.4576
▁da	-10.4577
▁thin	-10.4584
▁cruise	-10.4585
▁reign	-10.4585
▁civilian	-10.4597
▁employee	-10.4598
range	-10.4604
▁ne	-10.4606
▁pricing	-10.4607
▁swedish	-10.461
▁3-1	-10.4616
ren	-10.4616
▁governments	-10.4618
▁attempts	-10.4624
os	-10.4633
ron	-10.4637
▁sender	-10.4651
▁versions	-10.4653
qu	-10.4654
▁victim	-10.4658
ng	-10.4665
▁toys	-10.4666
▁murdoch	-10.4668
▁phillies	-10.4668
▁homered	-10.4669
▁integration	-10.4669
▁thanksgiving	-10.467
▁guantanamo	-10.467
▁eve	-10.467
▁cells	-10.467
▁specific	-10.467
▁chargers	-10.4671
▁nato	-10.4675
▁buyout	-10.468
▁birds	-10.4699
▁handsets	-10.47
den	-10.4704
▁pitching	-10.4718
▁chemical	-10.472
▁opponent	-10.4721
fer	-10.4726
di	-10.4727
▁worse	-10.473
▁cheap	-10.473
▁bangalore	-10.473
▁capabilities	-10.473
▁audio	-10.473
▁eriksson	-10.473
▁resistance	-10.473
▁lunar	-10.473
gen	-10.4732
▁accuse	-10.4739
▁install	-10.4743
▁picks	-10.4743
▁neck	-10.4747
▁swing	-10.476
▁carriers	-10.4765
▁ac	-10.478
▁ride	-10.4781
▁apart	-10.4782
▁insurer	-10.4784
▁import	-10.4785
▁cloud	-10.4785
▁reds	-10.4785
▁battles	-10.4789
▁punch	-10.4791
▁revamp	-10.4792
▁emissions	-10.4792
▁norway	-10.4793
▁luxury	-10.4793
▁emc	-10.4798
▁map	-10.4799
▁hi	-10.4802
▁someone	-10.4803
ho	-10.4805
▁producers	-10.4805
money	-10.4818
ney	-10.4818
life	-10.4826
▁swap	-10.4826
▁rolling	-10.4828
ah	-10.4848
▁israelis	-10.4849
▁museum	-10.4855
▁deployment	-10.4856
▁freedom	-10.4856
▁confirm	-10.4857
▁exporters	-10.4866
▁revised	-10.4868
▁material	-10.4877
▁scale	-10.4879
american	-10.488
▁existing	-10.4881
vi	-10.4896
▁evolution	-10.4899
▁perform	-10.49
▁clients	-10.4907
▁revenues	-10.4913
▁survive	-10.4916
▁fool	-10.4918
▁pollution	-10.4918
▁unusual	-10.4918
▁christian	-10.4918
▁library	-10.492
▁overcome	-10.492
▁36	-10.493
state	-10.4932
▁teammates	-10.4946
ak	-10.4947
▁scare	-10.4953
style	-10.4969
cy	-10.4975
▁slowed	-10.4976
▁killer	-10.4977
▁ambassador	-10.4981
▁genocide	-10.4981
▁milwaukee	-10.4981
▁widespread	-10.4981
▁wisconsin	-10.4981
▁submarine	-10.4981
▁interior	-10.4982
▁hughes	-10.4982
▁lock	-10.4982
▁baby	-10.4982
▁rice	-10.4982
▁replacement	-10.4983
▁admits	-10.4987
▁panthers	-10.5007
▁cuban	-10.5011
mer	-10.5023
▁shape	-10.5024
▁17-	-10.5029
▁sexual	-10.5036
pping	-10.5037
▁pharmaceutical	-10.5041
▁dominant	-10.5045
▁pinochet	-10.5045
rsene	-10.5045
▁highlight	-10.5045
▁employment	-10.5045
▁factories	-10.5045
▁wildlife	-10.5046
▁reveal	-10.5053
▁ricky	-10.5055
▁shaq	-10.5057
▁connect	-10.5057
▁62	-10.506
stroke	-10.5061
▁athletes	-10.5063
iest	-10.5063
▁detained	-10.5064
▁ta	-10.5065
▁stroke	-10.508
▁cha	-10.5081
▁asset	-10.5092
▁granted	-10.5103
▁blade	-10.5105
▁athletic	-10.5107
▁heavily	-10.5109
▁linebacker	-10.5109
▁paypal	-10.5109
▁victories	-10.5109
▁activists	-10.5111
▁guy	-10.5116
▁winners	-10.5118
▁fully	-10.5121
▁fail	-10.5121
▁santa	-10.514
▁cnn	-10.5141
▁steal	-10.5151
▁lowered	-10.5157
▁aggressive	-10.5161
▁older	-10.5168
fl	-10.517
itting	-10.5171
▁laptop	-10.5172
po	-10.5173
▁description	-10.5173
▁portfolio	-10.5173
▁promising	-10.5173
▁diamondbacks	-10.5173
▁juventus	-10.5174
korea	-10.5182
ville	-10.5187
▁600	-10.519
▁settled	-10.5191
final	-10.5196
▁thrown	-10.5198
billion	-10.5199
▁barr	-10.52
▁sight	-10.5214
▁audit	-10.5221
▁lehman	-10.5223
▁becomes	-10.5234
▁mich	-10.5236
▁bloom	-10.5238
▁milosevic	-10.5238
▁kennedy	-10.5238
▁exhibition	-10.5239
▁student	-10.5239
▁relay	-10.524
▁exec	-10.5243
▁titles	-10.5245
10	-10.5249
▁identified	-10.5258
▁devil	-10.5259
▁owned	-10.5261
▁visits	-10.527
ring	-10.5273
▁78	-10.5282
▁mutu	-10.5292
▁gop	-10.5293
▁execs	-10.5303
▁realnetworks	-10.5304
▁queen	-10.5304
▁coverage	-10.5305
▁learned	-10.5305
▁february	-10.5305
▁khan	-10.5305
▁northeastern	-10.5307
▁licensing	-10.5308
pro	-10.5312
▁respect	-10.5316
▁destroy	-10.5316
▁crashes	-10.5316
▁diplomatic	-10.5316
▁repeat	-10.5317
▁fixed	-10.5324
▁foreigners	-10.5331
▁tout	-10.5333
▁seriously	-10.5339
▁54	-10.5341
▁mar	-10.5346
▁proved	-10.5347
▁equator	-10.5369
▁1999	-10.5369
▁lsu	-10.537
▁billionaire	-10.537
▁widen	-10.5371
▁opinion	-10.5371
▁rod	-10.5373
za	-10.5377
▁idc	-10.5378
▁abducted	-10.5378
▁coaching	-10.5386
▁beheaded	-10.539
▁sink	-10.5395
▁cat	-10.5397
▁healthy	-10.54
place	-10.541
▁42	-10.5424
▁mann	-10.5431
all	-10.5434
▁simply	-10.5436
▁robust	-10.5436
▁shadow	-10.5439
▁astronaut	-10.544
▁pullout	-10.5442
▁endangered	-10.5444
▁imf	-10.5449
set	-10.545
ten	-10.5452
▁sean	-10.5453
▁notes	-10.5456
▁ballots	-10.5459
▁andreas	-10.5461
25	-10.5467
▁msft	-10.5471
▁views	-10.5473
▁ie	-10.5474
▁survivors	-10.5476
▁shop	-10.5477
▁$6	-10.5481
▁rep	-10.5482
▁route	-10.5487
▁hero	-10.549
▁stations	-10.55
▁polish	-10.5502
▁visitors	-10.5504
▁taylor	-10.5504
▁birth	-10.5505
▁visa	-10.5505
vendi	-10.5505
itarian	-10.5506
▁trials	-10.551
▁kids	-10.5522
▁buyers	-10.5523
▁har	-10.5524
▁51	-10.5527
▁forbes	-10.5529
▁56	-10.553
▁combined	-10.5531
▁6-	-10.5543
ine	-10.5546
ob	-10.5563
▁regime	-10.5569
▁cease	-10.5569
▁orioles	-10.5569
▁switzerland	-10.5569
▁conspiracy	-10.5569
▁pretty	-10.557
▁phase	-10.5571
▁indies	-10.5572
▁reveals	-10.5573
▁conservative	-10.5576
▁document	-10.5579
ino	-10.5579
han	-10.5582
▁caution	-10.5583
▁mary	-10.5588
▁chi	-10.5596
▁cow	-10.5598
▁instruments	-10.5613
▁owens	-10.5621
che	-10.5626
▁severe	-10.5629
▁marriage	-10.5637
▁branson	-10.5637
▁stunning	-10.5637
▁patrick	-10.5637
▁67	-10.5638
▁seasons	-10.5638
versus	-10.5644
▁marion	-10.5646
upbeat	-10.565
▁devastat	-10.565
▁slips	-10.5655
born	-10.5657
▁warm	-10.5665
▁beaten	-10.5667
▁proposals	-10.5669
▁forget	-10.5671
▁walker	-10.5672
▁hammer	-10.568
▁jp	-10.5682
▁else	-10.5686
▁li	-10.5695
▁fin	-10.5696
▁sam	-10.5699
▁robot	-10.5702
▁nvidia	-10.5705
▁stuff	-10.5705
▁mississippi	-10.5706
▁2012	-10.5706
▁exactly	-10.5709
▁oust	-10.5711
▁volume	-10.5717
▁limits	-10.5723
▁grows	-10.5727
▁contact	-10.5729
▁rating	-10.5735
ent	-10.5743
▁searching	-10.5748
▁hub	-10.5757
▁earthquakes	-10.5763
▁bi	-10.5766
▁netflix	-10.5773
▁privacy	-10.5773
▁hubble	-10.5774
▁lebanese	-10.5775
▁conway	-10.5775
▁native	-10.5775
▁floor	-10.5776
deadliest	-10.5779
▁raids	-10.578
▁unix	-10.5782
▁cheaper	-10.5784
ai	-10.5785
store	-10.5787
▁village	-10.5788
▁reward	-10.579
▁qb	-10.5798
wa	-10.5799
▁miners	-10.5801
▁determined	-10.5807
▁69	-10.5807
if	-10.5813
▁iron	-10.5825
mond	-10.5837
▁identify	-10.5842
▁insurgency	-10.5842
▁lynch	-10.5842
▁mourinho	-10.5842
▁pennsylvania	-10.5843
▁milestone	-10.5843
▁finland	-10.5843
▁pledges	-10.5846
▁ultimate	-10.5846
▁clock	-10.5847
▁18-	-10.5856
▁rover	-10.5858
▁bench	-10.5862
▁violations	-10.5862
▁jumps	-10.5865
▁resign	-10.5878
▁surrounding	-10.5884
▁tel	-10.5888
▁hoped	-10.5889
▁chen	-10.5898
ory	-10.59
▁outline	-10.59
▁lo	-10.5908
▁weekly	-10.5909
▁ovitz	-10.5912
▁revenge	-10.5912
▁dubai	-10.5912
▁poland	-10.5912
▁destruction	-10.5912
▁padres	-10.5913
▁lenovo	-10.5913
▁actually	-10.5915
▁lcd	-10.5921
▁organisation	-10.5925
▁mortar	-10.5925
▁celebrat	-10.5932
mmy	-10.5935
usatoday	-10.5943
▁battl	-10.5947
▁usatoday	-10.595
▁penn	-10.5955
▁politicians	-10.5957
▁races	-10.5958
▁feeling	-10.5959
▁ranks	-10.5962
▁addition	-10.5968
▁william	-10.5969
ft	-10.5973
erry	-10.5976
▁pope	-10.5982
▁congressional	-10.5982
▁mexican	-10.5982
▁samarra	-10.5982
▁intense	-10.5982
▁fenway	-10.5982
▁scottish	-10.5982
▁langer	-10.5984
▁64-	-10.5986
▁expensive	-10.5988
.8	-10.5989
les	-10.5992
▁brothers	-10.5995
▁yankee	-10.5998
▁12-	-10.5999
▁ms	-10.6005
▁tested	-10.6008
▁sco	-10.6015
▁questioned	-10.6018
▁acc	-10.6036
▁stun	-10.6043
▁roma	-10.6052
▁melbourne	-10.6052
▁prominent	-10.6052
▁aziz	-10.6052
▁harvard	-10.6052
▁outfielder	-10.6052
▁impressive	-10.6053
▁corner	-10.6058
▁musa	-10.6067
▁treaty	-10.6069
▁senator	-10.6069
▁note	-10.6071
▁investments	-10.6075
▁ata	-10.6076
ber	-10.6079
taking	-10.6082
▁exploit	-10.6087
▁slower	-10.6088
peer	-10.6092
▁defender	-10.61
▁bright	-10.6111
30	-10.6117
▁ku	-10.6123
▁bengals	-10.6123
▁encounter	-10.6123
▁malicious	-10.6123
▁poverty	-10.6123
▁subsidies	-10.6123
▁massacre	-10.6123
▁worked	-10.6124
▁qantas	-10.6125
▁southwest	-10.6126
▁button	-10.6127
▁basic	-10.6127
▁criticiz	-10.6128
▁ntt	-10.6129
▁governing	-10.614
▁reserves	-10.6146
▁alone	-10.6149
▁47	-10.6161
▁20-	-10.6162
▁explain	-10.6166
head	-10.617
▁jon	-10.6171
▁eliminate	-10.6183
▁settlers	-10.6184
▁surg	-10.6189
▁belgium	-10.6195
▁comcast	-10.6195
▁processing	-10.6196
▁midfielder	-10.6196
▁temporary	-10.6197
▁elite	-10.6197
▁ty	-10.6198
away	-10.6198
work	-10.6208
pl	-10.6208
▁joy	-10.6209
▁quietly	-10.6211
▁handle	-10.6213
▁minor	-10.6213
▁changing	-10.6214
▁reporter	-10.6215
▁gamers	-10.6216
▁bow	-10.6227
screen	-10.6228
▁wa	-10.624
tan	-10.624
▁economists	-10.6241
▁tourists	-10.6244
▁hip	-10.6245
ball	-10.6253
▁scrap	-10.6255
▁normal	-10.6261
▁daimlerchrysler	-10.6267
▁berth	-10.6268
▁catholic	-10.6268
▁swift	-10.6268
▁antivirus	-10.6268
▁dropping	-10.6269
▁wta	-10.627
ists	-10.6273
▁baseman	-10.6274
▁steroids	-10.6275
▁7-	-10.6279
▁gift	-10.6288
▁rental	-10.6291
▁affairs	-10.6293
ff	-10.6297
profile	-10.6301
3)	-10.6308
▁counting	-10.6311
▁grip	-10.6315
▁waters	-10.6319
▁intended	-10.632
▁porn	-10.6326
▁thinking	-10.6331
▁cy	-10.6333
▁ace	-10.6337
▁planets	-10.6337
▁ukrainian	-10.6339
▁spike	-10.6339
▁mull	-10.634
▁disarm	-10.634
▁finals	-10.6341
▁ethnic	-10.6341
▁hugo	-10.6342
▁invite	-10.6342
▁1/2	-10.6345
▁rivalry	-10.6346
tr	-10.635
▁checks	-10.635
▁automaker	-10.6364
▁direction	-10.6365
fine	-10.637
valley	-10.6373
msft	-10.6374
ors	-10.638
ja	-10.6381
▁scam	-10.6391
▁notice	-10.6394
▁exclusive	-10.6401
▁lu	-10.6401
▁competing	-10.6412
▁ramallah	-10.6412
▁managing	-10.6412
▁buried	-10.6412
▁electoral	-10.6412
▁supermarket	-10.6413
▁artest	-10.6414
▁urge	-10.6415
▁stood	-10.6416
▁stolen	-10.6419
▁arrive	-10.6421
▁meant	-10.643
▁disrupt	-10.643
▁falcons	-10.6432
▁edg	-10.6432
▁teenager	-10.6439
▁farmers	-10.6439
▁newspapers	-10.6454
▁recovered	-10.6457
▁mourning	-10.6459
▁cambodia	-10.647
▁quarterfinals	-10.6484
▁crystal	-10.6486
▁ernie	-10.6486
▁maoist	-10.6486
▁negative	-10.6486
▁syracuse	-10.6486
▁venus	-10.6486
▁easing	-10.6486
▁asking	-10.6486
146	-10.6492
▁indicted	-10.6494
ratings	-10.6496
▁twin	-10.6498
▁demanded	-10.6498
▁register	-10.6506
▁establish	-10.6508
▁complaint	-10.6517
▁standing	-10.6521
▁fake	-10.6523
▁jay	-10.6524
▁hasn	-10.6534
▁lands	-10.6537
▁brad	-10.6544
▁locked	-10.6548
▁1.5	-10.6551
▁concessions	-10.6556
▁pensions	-10.6557
eu	-10.6557
▁column	-10.6559
▁chancellor	-10.656
▁captors	-10.656
▁johan	-10.656
▁roster	-10.656
▁stockholm	-10.656
▁minority	-10.656
▁workforce	-10.6561
▁urban	-10.6562
▁globe	-10.6566
fa	-10.6568
▁kicked	-10.657
▁37	-10.6573
▁roman	-10.6574
▁type	-10.658
▁tensions	-10.6581
▁dig	-10.6585
▁stalled	-10.6586
scale	-10.6593
▁guns	-10.6593
▁survived	-10.6602
▁du	-10.6616
▁straw	-10.6616
▁destroyed	-10.662
liot	-10.662
▁mc	-10.6623
▁md	-10.6627
ph	-10.6632
▁linger	-10.6635
▁icc	-10.6638
▁rockies	-10.6639
doubleclick	-10.6642
▁swept	-10.6642
▁telling	-10.6648
▁tickets	-10.6655
▁connections	-10.6656
▁intend	-10.6658
▁quits	-10.666
▁shortage	-10.6667
▁label	-10.6668
▁improvement	-10.6668
▁replaced	-10.6682
▁throwing	-10.6686
win	-10.6689
▁kuwait	-10.6701
▁weakness	-10.6708
▁seize	-10.6709
▁audience	-10.6709
▁federation	-10.6709
▁chrysler	-10.6709
▁husband	-10.6709
▁twist	-10.6709
▁society	-10.671
▁arrival	-10.6711
▁stripped	-10.6713
▁$49	-10.6716
▁enterprises	-10.6716
▁pour	-10.6721
▁gmail	-10.6726
▁zi	-10.6742
▁attend	-10.6743
▁adam	-10.6745
jazeera	-10.6746
food	-10.6747
▁cl	-10.6748
▁tree	-10.6749
▁gen	-10.6757
rc	-10.6759
▁happened	-10.6759
▁describe	-10.6761
▁moderate	-10.6773
▁recalled	-10.6785
▁liberty	-10.6785
▁ortiz	-10.6785
▁chaos	-10.6786
▁laid	-10.6787
▁enforcement	-10.6787
▁unrest	-10.6788
▁removed	-10.6788
▁conducted	-10.6793
▁patches	-10.6794
hal	-10.6798
▁cite	-10.68
▁grace	-10.6815
▁matchup	-10.6817
▁sc	-10.6821
▁draws	-10.6828
ize	-10.6836
▁rwanda	-10.6846
▁wholesale	-10.6848
▁awaited	-10.6852
▁favre	-10.6862
▁nuggets	-10.6862
▁urging	-10.6862
▁vulnerable	-10.6862
▁abroad	-10.6862
▁departure	-10.6862
▁prescription	-10.6862
▁medium	-10.6862
▁compound	-10.6862
▁jacksonville	-10.6862
▁electricity	-10.6863
▁suddenly	-10.6871
▁fleet	-10.6875
▁operate	-10.6878
▁collect	-10.688
▁roy	-10.6881
▁snap	-10.6899
cnn	-10.69
▁angel	-10.6901
▁anwar	-10.6902
▁disclosed	-10.6904
hander	-10.6918
▁pages	-10.6918
▁wars	-10.692
ya	-10.6921
▁controls	-10.6925
▁fault	-10.6928
pi	-10.6928
▁employers	-10.6932
▁chair	-10.6937
▁birmingham	-10.6938
▁salvation	-10.6938
▁volkswagen	-10.6938
▁treo	-10.6939
▁robinson	-10.6939
▁mvp	-10.6942
▁5000	-10.6953
▁abc	-10.6954
▁sat	-10.6958
▁trapped	-10.6961
▁settlements	-10.6966
▁eric	-10.6966
▁cr	-10.6968
▁cd	-10.6969
▁predict	-10.697
▁incident	-10.6975
▁si	-10.6976
ster	-10.6977
▁finale	-10.6981
▁hunting	-10.6981
▁fat	-10.6987
▁troop	-10.699
▁refuse	-10.6991
▁ro	-10.6991
▁standings	-10.6992
▁integrate	-10.6995
▁signals	-10.6995
▁bloc	-10.7011
▁berlusconi	-10.7016
▁ghraib	-10.7016
▁pyongyang	-10.7016
▁spokeswoman	-10.7016
▁tribunal	-10.7016
▁penalties	-10.7016
▁grizzlies	-10.7016
▁various	-10.7016
▁louisville	-10.7017
▁guidant	-10.7017
▁merril	-10.702
▁waves	-10.702
▁hikes	-10.7022
▁chipmaker	-10.7025
ick	-10.7027
bl	-10.7027
▁exceed	-10.7029
▁seeing	-10.7037
free	-10.7038
▁rapid	-10.704
▁ambitions	-10.7042
▁marking	-10.7043
▁nears	-10.7048
terror	-10.7052
business	-10.7056
▁seats	-10.7064
▁brace	-10.7064
▁guerrillas	-10.7069
▁places	-10.7077
ev	-10.7078
▁embrace	-10.7083
▁sweet	-10.7092
▁ichiro	-10.7094
▁louisiana	-10.7094
▁overshadow	-10.7094
▁physical	-10.7094
▁souness	-10.7094
▁soyuz	-10.7094
▁holmes	-10.7094
▁verge	-10.7094
▁latin	-10.7095
▁legend	-10.7095
▁eventually	-10.7096
▁bidding	-10.7097
▁baker	-10.7097
▁missiles	-10.7099
▁icon	-10.7099
▁haitian	-10.71
▁inventory	-10.71
▁7-5	-10.7103
▁farm	-10.7104
▁freshman	-10.7106
▁rap	-10.711
▁attendants	-10.7112
▁mci	-10.7113
▁sting	-10.7113
linked	-10.7122
▁leap	-10.7124
ala	-10.7131
▁independence	-10.7134
school	-10.7134
▁doctor	-10.7136
▁eds	-10.7136
town	-10.7136
▁trees	-10.7139
lu	-10.7142
▁ships	-10.7146
▁jamaica	-10.7157
▁balance	-10.716
▁upon	-10.7161
▁$1.	-10.7164
▁react	-10.7167
▁aerospace	-10.7173
▁bangkok	-10.7173
▁pitcairn	-10.7173
▁thwart	-10.7173
▁withdrew	-10.7173
▁alaska	-10.7173
▁hamstring	-10.7173
▁hague	-10.7173
▁valuable	-10.7173
▁outcome	-10.7174
eastern	-10.7174
▁speedway	-10.7177
con	-10.7179
▁terry	-10.7186
40	-10.7198
▁yanks	-10.7205
▁nc	-10.7205
▁junk	-10.7207
▁debuts	-10.7208
▁dot	-10.7212
gi	-10.7217
torn	-10.7219
▁updated	-10.7225
▁declare	-10.7231
ni	-10.7233
▁feed	-10.7233
▁constitution	-10.7234
▁dog	-10.7234
▁distance	-10.724
▁replac	-10.7245
▁punish	-10.7252
▁laboratory	-10.7252
▁zook	-10.7253
▁shawn	-10.7255
▁hedge	-10.7256
▁standoff	-10.7256
nic	-10.7257
▁clearing	-10.7262
▁bayern	-10.7264
04	-10.7265
▁rapidly	-10.7265
▁posting	-10.7267
low	-10.7272
▁moss	-10.7278
▁bat	-10.7283
share	-10.7284
▁friend	-10.7288
▁featur	-10.7294
▁rough	-10.7294
▁champ	-10.7296
▁ha	-10.7297
▁slamm	-10.7308
▁master	-10.731
▁vital	-10.7313
▁tip	-10.7319
▁complet	-10.732
▁desperate	-10.732
▁coffee	-10.7332
▁santander	-10.7332
▁cycling	-10.7332
▁fingerprint	-10.7332
▁reputation	-10.7332
▁savings	-10.7332
▁mysterious	-10.7332
▁madison	-10.7332
▁blackburn	-10.7333
▁tycoon	-10.7334
ao	-10.7335
ware	-10.7336
▁click	-10.7338
br	-10.7343
▁deny	-10.7343
▁recalls	-10.7346
▁xm	-10.7348
▁rick	-10.735
-8	-10.7356
▁arch	-10.7356
▁negotiators	-10.7357
▁detect	-10.7358
▁longest	-10.7358
▁none	-10.7362
▁y	-10.7363
▁certainly	-10.7363
▁directly	-10.7375
▁pocket	-10.7378
▁nuke	-10.7378
▁sort	-10.7379
▁observers	-10.738
▁teammate	-10.7385
▁jar	-10.7385
hook	-10.7387
aa	-10.7389
▁strain	-10.7391
▁ce	-10.7392
▁sights	-10.7396
▁weighed	-10.7399
▁gathering	-10.7399
▁boys	-10.7399
▁happen	-10.7407
▁renew	-10.7411
▁venezuelan	-10.7412
▁meteor	-10.7412
▁earnhardt	-10.7413
▁intellectual	-10.7413
▁montgomerie	-10.7413
▁advice	-10.7413
▁bruce	-10.7413
▁transportation	-10.7414
▁serb	-10.7415
▁mgm	-10.7416
▁juan	-10.7418
handed	-10.7422
▁animals	-10.7423
▁3-2	-10.7425
▁understand	-10.7428
▁specialist	-10.7433
▁plunged	-10.7434
▁born	-10.7438
-7	-10.7439
▁rounds	-10.7441
▁malaysian	-10.7445
▁pat	-10.7446
-4	-10.7449
▁fines	-10.7455
ripped	-10.7469
▁plunge	-10.7473
▁romania	-10.748
▁brewers	-10.7481
▁ka	-10.7482
▁valencia	-10.7494
▁involvement	-10.7495
▁batteries	-10.7496
▁promotion	-10.7496
▁belgian	-10.7497
mp	-10.7498
▁belarus	-10.7504
▁reliever	-10.7511
▁govt	-10.7512
▁damaged	-10.7519
▁cape	-10.752
we	-10.7523
▁reopen	-10.7525
▁shed	-10.753
min	-10.7532
▁tougher	-10.7537
▁author	-10.754
▁buildings	-10.755
▁worms	-10.7575
▁damascus	-10.7576
▁delegation	-10.7576
▁junior	-10.7576
▁kathmandu	-10.7576
▁tottenham	-10.7576
▁warplanes	-10.7576
▁swimming	-10.7576
▁kreme	-10.7576
▁cloning	-10.7576
▁uncertainty	-10.7576
▁84	-10.7578
▁fbi	-10.7578
▁filmmaker	-10.7578
▁judges	-10.758
▁equal	-10.7584
▁drama	-10.7587
▁hawks	-10.7588
▁bc	-10.7593
▁44	-10.7594
▁rein	-10.7594
▁saints	-10.7595
▁43	-10.7595
▁divided	-10.7597
▁estimate	-10.7604
▁grabb	-10.7606
▁clues	-10.761
▁lowe	-10.7618
▁tanks	-10.7618
▁stakes	-10.7629
▁za	-10.7633
▁rim	-10.7641
▁kings	-10.7643
▁ke	-10.7644
▁produc	-10.7648
port	-10.7651
▁$8	-10.7653
▁genetic	-10.7653
▁hybrid	-10.7659
▁jpeg	-10.7659
▁libraries	-10.7659
▁malcolm	-10.7659
▁mercury	-10.7659
▁rafael	-10.7659
▁taipei	-10.7659
▁unchanged	-10.7659
▁atmosphere	-10.766
called	-10.7661
▁availability	-10.7661
▁mitsubishi	-10.7661
▁hunger	-10.7662
▁meyer	-10.7663
▁dealers	-10.7667
▁eta	-10.7672
▁indicated	-10.7674
ag	-10.7676
▁16-	-10.7681
▁supporting	-10.7682
ned	-10.7682
▁td	-10.7684
▁remov	-10.7692
▁syrian	-10.7703
▁jointly	-10.7707
▁medicine	-10.7713
▁error	-10.7714
▁dun	-10.7719
▁compromise	-10.7721
▁aides	-10.7728
▁guards	-10.7737
▁wood	-10.7741
▁dominance	-10.7742
▁receiving	-10.7742
▁suzuki	-10.7742
▁yellow	-10.7742
▁avert	-10.7743
▁aviv	-10.7743
▁aaron	-10.7743
▁greenhouse	-10.7744
▁singles	-10.7745
king	-10.7751
▁mistakes	-10.7753
▁reader	-10.7759
▁250	-10.7766
▁telecoms	-10.7769
▁closest	-10.777
media	-10.7773
▁dent	-10.7774
mobile	-10.7787
▁delivers	-10.7788
blew	-10.7789
party	-10.7792
▁cbs	-10.7795
▁scheme	-10.7798
▁landed	-10.7801
▁expenses	-10.7803
▁fatal	-10.7803
▁improper	-10.7813
▁prior	-10.7825
▁hornets	-10.7826
▁imminent	-10.7826
▁mumbai	-10.7826
▁zurich	-10.7826
▁linds	-10.7827
▁steer	-10.7827
▁trademark	-10.7828
▁fedex	-10.7828
▁aristide	-10.7829
▁necessary	-10.7829
▁skipper	-10.783
▁troy	-10.7832
▁bail	-10.7832
kin	-10.7833
▁alter	-10.7838
▁readie	-10.7839
▁islam	-10.784
▁lifting	-10.7844
▁erupted	-10.7865
▁rankings	-10.7869
bound	-10.787
▁please	-10.7872
biggest	-10.7872
▁diplomat	-10.7874
▁suspicion	-10.7884
▁tighten	-10.7884
▁fee	-10.789
▁contractor	-10.7901
▁surprised	-10.7901
▁patrol	-10.7904
har	-10.7905
▁answers	-10.7906
▁acquir	-10.7906
▁defect	-10.7906
▁purdue	-10.7911
▁pursuit	-10.7911
▁qualcomm	-10.7911
▁ramirez	-10.7911
▁vulnerability	-10.7911
▁stanford	-10.7911
ett	-10.7916
▁volcano	-10.7917
▁dial	-10.7918
▁cos	-10.7922
nl	-10.7923
▁zif	-10.7931
▁$24	-10.7932
▁na	-10.7941
▁condemn	-10.7942
▁significantly	-10.7945
▁pan	-10.7946
computerworld	-10.7957
rek	-10.7964
▁pos	-10.7967
▁waste	-10.797
▁grenade	-10.7971
▁pill	-10.7976
▁ger	-10.798
▁declines	-10.7981
rop	-10.7989
▁med	-10.7989
▁diet	-10.7991
▁fred	-10.7996
▁embargo	-10.7996
▁rodriguez	-10.7996
▁symbian	-10.7996
▁vulnerabilities	-10.7996
▁crunch	-10.7996
▁fifa	-10.7996
▁hitachi	-10.7996
▁stanley	-10.7996
▁nature	-10.7997
▁shootout	-10.7997
lie	-10.7997
▁drought	-10.7997
▁cornerback	-10.7998
▁portland	-10.7998
▁islamist	-10.7998
▁dave	-10.7998
▁formed	-10.7999
▁publicly	-10.8
▁popularity	-10.8001
▁7000	-10.8009
▁lying	-10.8012
▁acknowledged	-10.8015
▁ian	-10.8025
▁pet	-10.8037
▁$15	-10.804
house	-10.8049
tax	-10.8053
sp	-10.8054
▁rossi	-10.8056
ani	-10.8056
▁slowly	-10.8057
▁99	-10.8062
owned	-10.8067
▁items	-10.8068
ill	-10.8069
leaguer	-10.8072
▁2006.	-10.8074
▁adjust	-10.8082
▁persuade	-10.8083
▁dialogue	-10.8083
▁negotiating	-10.8083
▁animation	-10.8083
▁videotape	-10.8083
▁kiev	-10.8083
▁firewall	-10.8083
▁permission	-10.8083
▁offshore	-10.8083
▁rail	-10.8083
▁68	-10.8084
▁length	-10.8087
▁inaugura	-10.8088
▁11-	-10.8093
▁dawn	-10.8095
▁disappointed	-10.8095
▁recorded	-10.8095
▁mel	-10.8101
▁52	-10.8102
came	-10.811
▁clinched	-10.811
▁mice	-10.8114
ang	-10.8124
▁shoot	-10.8125
market	-10.8127
▁print	-10.8138
▁royals	-10.8142
▁closes	-10.8146
▁repeated	-10.8153
▁assists	-10.8158
▁permanent	-10.8159
hold	-10.8161
▁upgrades	-10.8162
▁villa	-10.8163
▁lyon	-10.8167
▁77	-10.8167
▁alexander	-10.8169
▁sorenstam	-10.8169
▁dhaka	-10.817
▁blind	-10.817
▁ericsson	-10.817
▁basis	-10.817
▁bernie	-10.817
▁sep	-10.8171
▁anderson	-10.8171
▁lobby	-10.8171
▁sand	-10.8173
▁lash	-10.8174
▁written	-10.8175
ence	-10.818
▁monitoring	-10.8188
▁viacom	-10.8196
▁24-	-10.8197
▁wouldn	-10.8203
▁obtain	-10.8204
▁nz	-10.8204
▁tha	-10.8205
▁mix	-10.8209
▁correct	-10.821
▁meaning	-10.8213
view	-10.8214
▁tear	-10.8216
trick	-10.8238
▁escalat	-10.8243
▁article	-10.8243
▁spoke	-10.8244
▁app	-10.825
▁uncertain	-10.8257
▁alabama	-10.8257
▁klitschko	-10.8257
▁krispy	-10.8257
▁renault	-10.8257
▁tribute	-10.8257
▁yudhoyono	-10.8257
▁funeral	-10.8257
▁presidency	-10.8257
▁4-0	-10.8259
▁occupied	-10.826
▁uprising	-10.8262
▁bhp	-10.8262
▁deepen	-10.8266
▁restate	-10.8267
▁chosen	-10.8268
chip	-10.8271
-5	-10.8271
▁symbol	-10.8272
▁robb	-10.8273
▁bali	-10.8273
▁speaking	-10.8273
▁trucks	-10.8287
▁prisoner	-10.8292
▁talent	-10.8292
▁laser	-10.8298
bi	-10.8303
terrorism	-10.8308
▁stable	-10.8309
corp	-10.8311
▁condemned	-10.8312
▁mis	-10.8315
power	-10.8326
▁spa	-10.8331
▁volatil	-10.8345
▁1980	-10.8345
▁chicken	-10.8346
▁fischer	-10.8346
▁ontario	-10.8346
▁vancouver	-10.8346
▁casualties	-10.8346
▁grae	-10.8346
▁63	-10.8347
▁qwest	-10.8347
▁breeders	-10.8347
▁mcafee	-10.8348
▁adopted	-10.8348
▁kurt	-10.835
▁slight	-10.835
▁peyton	-10.8352
▁promot	-10.8356
▁stops	-10.8366
▁$12	-10.837
▁slum	-10.837
▁releas	-10.8371
▁neal	-10.8374
▁costly	-10.8376
mas	-10.8378
▁elect	-10.8394
record	-10.8397
pti	-10.8399
▁films	-10.8403
tv	-10.8404
▁holidays	-10.8405
▁collapsed	-10.8407
ance	-10.8409
▁odds	-10.8411
▁glen	-10.8412
▁favourite	-10.8418
▁slid	-10.842
▁46	-10.8423
▁57	-10.8423
▁stays	-10.8426
▁active	-10.8428
▁branch	-10.8432
▁calendar	-10.8435
▁facilities	-10.8435
▁telephony	-10.8435
▁elsewhere	-10.8435
▁breach	-10.8435
▁austin	-10.8436
▁multimedia	-10.8436
▁ownership	-10.8437
▁innovation	-10.8437
▁combine	-10.8441
▁experimental	-10.8446
yad	-10.8447
▁concluded	-10.8455
▁highway	-10.8461
▁crossing	-10.8461
▁cheer	-10.8464
▁sustained	-10.8465
▁implement	-10.847
ade	-10.8481
motive	-10.8486
▁girls	-10.8487
▁clears	-10.8488
▁select	-10.849
▁mavericks	-10.8495
▁detainees	-10.8497
▁cooper	-10.85
▁comment	-10.8514
room	-10.8514
ise	-10.8524
▁smoke	-10.8525
▁custody	-10.8525
▁gazprom	-10.8525
▁siebel	-10.8525
▁starbucks	-10.8525
▁guidance	-10.8525
▁harrington	-10.8525
▁conrad	-10.8525
▁brett	-10.8526
▁bases	-10.8526
▁unique	-10.8529
▁gdp	-10.853
▁clinical	-10.853
▁jerem	-10.853
▁cargo	-10.8533
▁wish	-10.8534
▁unknown	-10.8534
▁trans	-10.8535
▁trio	-10.8543
▁battery	-10.8547
▁damages	-10.8554
▁ranked	-10.8558
randy	-10.8562
▁wired	-10.8565
▁stone	-10.8565
▁chat	-10.8566
▁parliamentar	-10.8568
running	-10.8578
▁required	-10.8589
▁blocks	-10.8591
▁tire	-10.8601
-3	-10.8607
▁bag	-10.8608
breaking	-10.8609
▁ambitious	-10.8616
▁opteron	-10.8616
▁telstra	-10.8616
▁dreamworks	-10.8616
▁panama	-10.8616
▁spurrier	-10.8616
▁pierce	-10.8617
▁tendulkar	-10.8617
▁abuja	-10.8617
▁blockade	-10.8617
▁culture	-10.8618
▁charging	-10.8621
▁9/11	-10.8621
pe	-10.8621
▁homers	-10.8628
▁bulls	-10.8628
▁apply	-10.863
▁batting	-10.8639
▁ni	-10.8644
▁fredd	-10.865
▁beheading	-10.8651
▁breath	-10.8654
▁spurr	-10.8657
▁misse	-10.8659
ari	-10.8662
izing	-10.8663
▁mistake	-10.8681
-13	-10.8682
▁negotiate	-10.8686
▁rescuer	-10.869
▁ink	-10.8695
▁animal	-10.8697
▁steroid	-10.8697
▁hosts	-10.8697
▁celebration	-10.8697
▁reaction	-10.8699
▁argentine	-10.8708
▁clippers	-10.8708
▁false	-10.8708
▁norwegian	-10.8708
▁santiago	-10.8708
▁striking	-10.8708
▁timberwolves	-10.8708
▁jazz	-10.8708
▁execution	-10.8708
▁durable	-10.8709
▁luke	-10.8709
▁mickelson	-10.8709
▁palmsource	-10.871
chi	-10.8714
▁canceled	-10.8716
▁jamal	-10.8716
▁exporter	-10.8716
▁lived	-10.8719
▁theory	-10.8724
▁0.1	-10.873
▁integrated	-10.8733
▁metal	-10.8736
▁soars	-10.8737
▁sacked	-10.8737
▁ira	-10.8744
▁whales	-10.8745
▁bound	-10.875
▁bold	-10.875
▁probes	-10.8753
known	-10.8755
▁raw	-10.8765
▁roe	-10.8768
▁warriors	-10.8769
90	-10.8779
▁vince	-10.8779
▁cia	-10.8782
▁drawn	-10.8784
▁recruit	-10.8787
▁kidnapping	-10.879
▁thom	-10.8792
▁semifinal	-10.8792
▁cellphone	-10.8793
▁bombers	-10.88
▁abrupt	-10.88
▁unanimous	-10.88
▁manhattan	-10.88
▁southampton	-10.88
▁viktor	-10.88
▁wimbledon	-10.88
▁steep	-10.88
▁delaware	-10.88
▁urgent	-10.8801
▁exploration	-10.8802
▁wealth	-10.8803
upert	-10.8804
▁$7	-10.8806
00	-10.8813
▁travelers	-10.8817
board	-10.8817
▁rwandan	-10.8819
▁learning	-10.882
▁strongest	-10.8822
▁charter	-10.8827
▁log	-10.883
isse	-10.8833
▁hal	-10.8837
ov	-10.8838
▁maccentral	-10.8838
ki	-10.8843
▁moments	-10.8844
swapping	-10.8852
▁listed	-10.8861
▁blocked	-10.8862
▁gp	-10.8865
▁imp	-10.8869
▁plug	-10.8875
▁textile	-10.8885
▁yield	-10.8886
▁maine	-10.8887
▁patient	-10.8888
▁6-0	-10.8891
▁asylum	-10.8894
▁jeeves	-10.8894
▁journey	-10.8894
▁lucrative	-10.8894
▁disappointment	-10.8894
▁charlie	-10.8894
▁stepping	-10.8894
▁wimax	-10.8894
▁kingdom	-10.8894
▁ultra	-10.8894
▁mlb	-10.8895
▁nightmare	-10.8895
▁bolton	-10.8895
▁stability	-10.8896
▁sensitive	-10.8897
▁portal	-10.8901
▁psp	-10.8905
▁romanian	-10.8913
▁reduc	-10.8913
tel	-10.8918
ped	-10.8918
gn	-10.8918
▁sour	-10.8924
ct	-10.8937
▁tracking	-10.8937
▁goldman	-10.8939
▁aids	-10.894
▁bear	-10.8943
▁dar	-10.8944
signed	-10.8947
maccentral	-10.895
spyware	-10.895
ibm	-10.895
▁grab	-10.8971
▁beer	-10.8978
▁seal	-10.8983
▁pose	-10.8983
▁appoint	-10.8984
▁harris	-10.8985
▁subscription	-10.8988
▁absence	-10.8988
▁conglomerate	-10.8988
▁example	-10.8988
▁spectacular	-10.8988
▁studies	-10.8988
▁turmoil	-10.8988
▁amateur	-10.8988
▁arbitration	-10.8988
▁concert	-10.8988
▁referee	-10.8988
▁unfair	-10.8988
▁circulation	-10.8988
▁survival	-10.8989
▁hundred	-10.899
▁tourism	-10.8992
▁outbreak	-10.8992
▁criticize	-10.8994
iyad	-10.8995
▁questionable	-10.8996
around	-10.8998
▁electrical	-10.9005
▁ameli	-10.9006
▁shower	-10.9014
▁surrender	-10.9029
▁advocates	-10.9033
▁rocks	-10.9033
▁transactions	-10.9036
▁nor	-10.9039
▁wearing	-10.9043
▁ram	-10.9045
▁tracks	-10.9052
▁suing	-10.9054
▁established	-10.9057
▁explode	-10.9061
▁experiment	-10.9067
▁components	-10.9072
iff	-10.9076
▁conviction	-10.9078
▁neighbor	-10.9079
▁activist	-10.908
▁wash	-10.908
▁loyal	-10.9082
01	-10.9083
▁buoy	-10.9083
▁crawford	-10.9083
▁empire	-10.9083
▁identification	-10.9083
▁mcnair	-10.9083
▁glory	-10.9083
▁liquid	-10.9084
▁sacramento	-10.9084
▁gunners	-10.9085
▁resumed	-10.9086
▁burma	-10.9087
▁carries	-10.909
▁mild	-10.9091
▁slain	-10.9101
▁mall	-10.9106
▁publishing	-10.9109
▁bankers	-10.9113
▁greet	-10.9115
▁roar	-10.9116
▁schwa	-10.9118
▁dress	-10.9121
▁adapters	-10.9128
definition	-10.9141
▁explore	-10.9141
ver	-10.9142
ek	-10.9152
▁bite	-10.9162
▁shine	-10.9168
▁bea	-10.917
▁rio	-10.9179
▁bluetooth	-10.918
▁frankfurt	-10.918
▁parmalat	-10.918
▁academic	-10.918
▁dubbed	-10.918
▁generic	-10.918
▁grocer	-10.918
▁salary	-10.918
▁serie	-10.918
▁earns	-10.9181
▁peterson	-10.9182
▁cartel	-10.9183
▁slugger	-10.9184
▁professionals	-10.9185
▁continental	-10.9193
▁llc	-10.9194
▁shortly	-10.9202
▁impos	-10.9211
▁flooding	-10.9216
▁drawing	-10.9226
ot	-10.9227
lan	-10.9228
▁tradition	-10.9234
▁feels	-10.9237
▁kit	-10.9243
▁introduc	-10.9245
▁$53	-10.9246
▁21-	-10.9252
wing	-10.9256
▁solve	-10.9267
▁abandoned	-10.9267
▁teenage	-10.9274
▁ibrahim	-10.9277
▁locust	-10.9277
▁lukoil	-10.9277
▁screensaver	-10.9277
▁temporarily	-10.9277
▁twenty	-10.9277
▁universe	-10.9277
▁vonage	-10.9277
▁pennington	-10.9277
▁communication	-10.9277
▁geneva	-10.9277
▁spill	-10.9278
▁pride	-10.9278
▁shutout	-10.928
▁disruptions	-10.9285
care	-10.9288
▁policemen	-10.9289
▁saving	-10.9298
▁porto	-10.9298
▁buzz	-10.9305
▁structure	-10.9308
▁delegates	-10.9309
mode	-10.9309
▁alleg	-10.931
▁colombian	-10.931
▁lesson	-10.9313
▁drink	-10.9314
▁atp	-10.9318
▁pump	-10.9319
▁derail	-10.9321
▁creditors	-10.9324
zif	-10.9327
▁overturn	-10.9328
▁rust	-10.9332
ravag	-10.9338
▁complaints	-10.9339
mile	-10.9341
▁mob	-10.9347
▁curse	-10.9354
▁ruu	-10.9357
▁greg	-10.9361
▁fl	-10.9367
ew	-10.9369
▁koizumi	-10.9375
▁matthew	-10.9375
▁missouri	-10.9375
▁primary	-10.9375
▁foster	-10.9375
▁cybersecurity	-10.9375
▁priest	-10.9375
▁shauk	-10.9376
▁extinction	-10.9376
▁competitor	-10.9377
▁1500	-10.9379
▁moore	-10.9381
▁switches	-10.9382
▁$200	-10.9384
▁nj	-10.9393
▁proof	-10.9395
▁ot	-10.9396
tu	-10.9397
▁mph	-10.94
▁fights	-10.9402
▁mourn	-10.9407
▁bargain	-10.9411
▁sporting	-10.9415
ate	-10.9418
▁filled	-10.9419
▁tune	-10.943
▁labels	-10.9434
▁gators	-10.9435
dvd	-10.9436
▁72	-10.945
▁mal	-10.9451
▁steven	-10.9451
▁regulations	-10.9456
▁coke	-10.946
uille	-10.9472
▁asbestos	-10.9474
▁gerrard	-10.9474
▁portsmouth	-10.9474
▁restructure	-10.9474
▁benchmark	-10.9474
▁factor	-10.9474
▁rebounded	-10.9474
▁willingham	-10.9474
▁turf	-10.9475
▁muq	-10.9475
▁omar	-10.9475
▁lone	-10.9476
▁birthday	-10.9476
▁reduction	-10.9481
▁veterans	-10.9488
▁flee	-10.9491
▁71	-10.9497
▁suits	-10.9505
▁halted	-10.9505
▁opera	-10.9509
▁hint	-10.9515
ler	-10.9518
nation	-10.9522
member	-10.9532
▁metro	-10.9534
winning	-10.9538
▁slows	-10.954
65	-10.9549
▁actions	-10.9552
▁smile	-10.9552
▁85	-10.9554
▁male	-10.956
▁96	-10.9561
▁dreams	-10.9571
▁selected	-10.9572
▁minneapolis	-10.9574
▁yushchenko	-10.9574
▁declining	-10.9574
▁combination	-10.9574
▁importance	-10.9574
▁eddie	-10.9574
▁wreckage	-10.9574
▁skype	-10.9574
▁shortstop	-10.9574
▁sugar	-10.9576
▁muscle	-10.9578
▁counterpart	-10.9579
▁fixes	-10.9582
▁centers	-10.9587
▁capabl	-10.9594
▁opposed	-10.9615
▁sick	-10.9615
▁jaguars	-10.9619
▁lane	-10.9626
▁powered	-10.9626
▁tactics	-10.9633
match	-10.9634
▁selection	-10.9636
▁liberal	-10.9636
shell	-10.9637
▁pile	-10.9644
sburg	-10.9644
▁8-	-10.9644
▁birdie	-10.9648
▁looms	-10.965
▁mate	-10.9656
ural	-10.9663
▁2-2	-10.9664
▁guarantee	-10.9669
▁conn	-10.9672
▁gambling	-10.9675
▁ganguly	-10.9675
▁gibbs	-10.9675
▁incumbent	-10.9675
▁temple	-10.9675
▁messenger	-10.9675
▁bureau	-10.9675
▁snatch	-10.9675
▁truce	-10.9675
▁hungary	-10.9675
▁campbell	-10.9675
▁cocaine	-10.9675
▁incentives	-10.9675
▁mouse	-10.9676
▁mideast	-10.9676
▁mills	-10.9676
▁nbc	-10.9676
▁brink	-10.9678
▁bio	-10.9678
▁wright	-10.968
▁magnitude	-10.968
▁architecture	-10.9681
▁lord	-10.9682
tion	-10.9683
▁adviser	-10.9683
▁mandate	-10.9687
▁$20	-10.9689
our	-10.9693
▁shared	-10.9694
▁percentage	-10.9696
▁abuses	-10.9705
▁packed	-10.9707
▁adults	-10.9708
▁errors	-10.9709
▁propose	-10.971
▁dann	-10.9716
hard	-10.9721
ane	-10.9731
▁printers	-10.9731
▁withdrawn	-10.9743
ward	-10.9749
▁sprinters	-10.9751
going	-10.9755
▁(3	-10.9764
▁pen	-10.9767
▁vol	-10.9775
▁ecclestone	-10.9777
▁giambi	-10.9777
▁oregon	-10.9777
▁professor	-10.9777
▁tribal	-10.9777
▁1996	-10.9777
▁accusations	-10.9777
▁reliance	-10.9777
tra	-10.9777
▁gross	-10.9777
▁stunned	-10.9777
▁gunfire	-10.9777
▁sworn	-10.9778
▁100-	-10.9779
▁midway	-10.9782
▁shield	-10.9782
▁strokes	-10.9783
iv	-10.9784
▁subpoena	-10.9785
ez	-10.9786
ised	-10.9787
▁ponder	-10.9787
▁rev	-10.979
▁locker	-10.9796
▁interested	-10.98
▁effectively	-10.9801
▁3:	-10.9807
▁counted	-10.9815
▁researcher	-10.9819
86	-10.9819
▁served	-10.9825
▁camps	-10.9832
▁interests	-10.9832
▁dean	-10.9833
▁fled	-10.9833
▁broadcasting	-10.9835
▁remarks	-10.9835
▁differences	-10.9839
▁monitors	-10.984
goran	-10.9841
▁bug	-10.9841
controlled	-10.9842
setting	-10.9842
sbc	-10.9845
▁riot	-10.9854
ub	-10.9869
▁yes	-10.987
▁strange	-10.9875
▁61	-10.9876
mon	-10.9876
▁opt	-10.9878
▁barrichello	-10.988
▁challenging	-10.988
▁schwarzenegger	-10.988
▁scramble	-10.988
▁silence	-10.988
▁testimony	-10.988
▁lacklust	-10.988
▁sinai	-10.988
▁detonated	-10.9882
▁frontier	-10.9883
▁pharmaceuticals	-10.9886
▁dale	-10.989
▁$46	-10.9891
▁component	-10.9892
▁overwhelming	-10.9894
▁hover	-10.9895
▁statistics	-10.9898
▁bombardi	-10.9902
▁shin	-10.9902
▁hair	-10.9902
▁strongly	-10.9906
▁buyback	-10.9907
▁teen	-10.9916
▁surpass	-10.992
▁ti	-10.9924
ig	-10.993
▁predicts	-10.9933
▁jam	-10.9938
▁colleagues	-10.9939
commerce	-10.9945
service	-10.9958
▁dvds	-10.9958
▁jonath	-10.9958
▁licenses	-10.996
▁businessman	-10.9961
▁dealt	-10.9968
zi	-10.997
▁$11	-10.9974
▁che	-10.9974
▁enhance	-10.9976
80	-10.9976
▁tvs	-10.9979
▁$9	-10.998
▁benitez	-10.9984
▁berkeley	-10.9984
▁kazakhstan	-10.9984
▁lebron	-10.9984
▁racist	-10.9984
▁colgate	-10.9984
call	-10.9984
▁lpga	-10.9984
▁lucent	-10.9984
▁sutton	-10.9984
▁silverstone	-10.9984
▁partial	-10.9985
▁assessment	-10.9985
▁optical	-10.9985
▁routine	-10.9985
▁wing	-10.9985
▁reverse	-10.9985
▁typical	-10.9986
▁heels	-10.9986
▁mastermind	-10.9986
▁nice	-10.9987
▁bundle	-10.9989
▁highlights	-10.999
▁fm	-10.9991
▁nearby	-10.9992
▁herald	-10.9996
▁daughter	-10.9997
▁distributor	-10.9997
▁affected	-10.9998
▁aussie	-10.9998
made	-10.9999
▁mont	-11
▁assist	-11
▁emotional	-11.0002
▁slo	-11.0016
▁resorts	-11.0019
sson	-11.0021
om	-11.0021
east	-11.0024
▁gadgets	-11.0024
▁86	-11.0026
▁walking	-11.0027
wire	-11.0029
▁160	-11.0034
▁stir	-11.0035
▁torn	-11.0041
▁household	-11.0041
leading	-11.0044
▁bayer	-11.0046
cal	-11.0048
▁completely	-11.0048
pacific	-11.0051
growing	-11.0051
▁labs	-11.0067
▁bu	-11.0068
▁devastated	-11.0071
selling	-11.0071
▁aussies	-11.0075
▁sudden	-11.0076
-17	-11.0078
▁gil	-11.0078
▁protecting	-11.0079
igley	-11.0083
▁$35	-11.0086
▁faith	-11.0088
pplied	-11.0089
▁hook	-11.0089
▁economies	-11.0089
▁impossible	-11.0089
▁kuznetsova	-11.0089
▁latham	-11.0089
▁sheffield	-11.0089
▁basque	-11.0089
▁collins	-11.0089
▁carbon	-11.009
▁blazers	-11.009
▁yao	-11.009
▁collaboration	-11.009
▁spell	-11.009
keith	-11.009
▁nfc	-11.0091
▁stiff	-11.0092
▁knockout	-11.0093
▁chilean	-11.0093
▁employ	-11.0095
▁clarke	-11.0095
▁han	-11.0096
▁haul	-11.0098
▁expo	-11.0099
▁campus	-11.0099
▁iaea	-11.01
▁kicks	-11.0106
▁explosive	-11.0106
▁underway	-11.0109
▁brokers	-11.011
▁melt	-11.0117
▁singer	-11.0119
▁trainer	-11.0121
▁discussions	-11.0124
named	-11.0125
▁listen	-11.0126
▁surround	-11.0132
▁demonstrat	-11.0139
▁rent	-11.014
▁catcher	-11.0141
ks	-11.0141
▁spreading	-11.0143
▁willing	-11.015
▁ir	-11.0152
cc	-11.0157
wanted	-11.0157
▁nose	-11.0159
▁salt	-11.0159
▁unity	-11.0161
▁hurdles	-11.0168
▁14-	-11.0172
▁bann	-11.018
stone	-11.0188
▁gamble	-11.0195
▁poison	-11.0195
▁columbus	-11.0196
▁doubleheader	-11.0196
▁memorial	-11.0196
▁properties	-11.0196
▁ankara	-11.0196
▁foul	-11.0196
▁interactive	-11.0196
▁prosecution	-11.0196
▁transition	-11.0196
▁ceasefire	-11.0196
▁programming	-11.0196
▁betting	-11.0196
▁luis	-11.0197
▁frozen	-11.0197
▁treated	-11.0197
▁stuck	-11.0198
▁recognize	-11.02
▁cycle	-11.0201
▁pitches	-11.0206
60	-11.0207
▁handl	-11.0209
▁spare	-11.0212
▁kidd	-11.0213
▁88	-11.0214
▁regulation	-11.0215
▁nazi	-11.0215
▁brewer	-11.0219
▁rivers	-11.0221
▁tale	-11.0221
▁1.8	-11.0231
▁infected	-11.0231
▁depend	-11.0233
tor	-11.0237
lay	-11.0237
▁booming	-11.0243
-14	-11.0247
▁13-	-11.0248
▁defeats	-11.0249
her	-11.0259
▁$1.5	-11.0263
ating	-11.027
▁purchased	-11.0279
▁eat	-11.0279
▁lights	-11.0283
▁rob	-11.0289
▁hy	-11.029
▁1.3	-11.029
▁au	-11.0297
car	-11.0299
▁legislati	-11.0299
▁drinks	-11.0303
▁collision	-11.0303
▁hampshire	-11.0303
▁fulham	-11.0303
▁nistelrooy	-11.0303
▁tragedy	-11.0303
▁verdict	-11.0303
▁heisman	-11.0303
▁legacy	-11.0303
▁detention	-11.0303
▁radar	-11.0304
▁frustration	-11.0304
▁assess	-11.0306
▁tunnel	-11.0306
inning	-11.0306
▁richest	-11.0309
light	-11.0311
▁spots	-11.0312
▁topped	-11.0312
▁burst	-11.0323
▁shark	-11.0324
▁kenyan	-11.0331
▁fighter	-11.0336
ue	-11.0336
▁se	-11.0346
▁spott	-11.0347
▁wounds	-11.0347
▁window	-11.0347
▁650	-11.035
silo	-11.0353
▁platforms	-11.037
▁bp	-11.0377
buck	-11.038
▁$25	-11.0381
▁registered	-11.0382
▁landslides	-11.0384
4)	-11.0395
▁erp	-11.0406
▁oh	-11.041
▁astrazeneca	-11.0412
▁cendant	-11.0412
▁gloom	-11.0412
▁nervous	-11.0412
▁participate	-11.0412
▁53	-11.0412
▁overture	-11.0412
▁hydrogen	-11.0412
▁plastic	-11.0412
▁peaceful	-11.0412
▁cheese	-11.0413
▁apartment	-11.0413
▁grim	-11.0413
▁castro	-11.0414
▁harsh	-11.0414
▁supports	-11.0414
▁brom	-11.0415
▁stance	-11.0416
▁helicopters	-11.0419
cious	-11.042
▁broaden	-11.0421
▁weis	-11.0428
▁gu	-11.0432
▁restaurant	-11.0435
▁frustrated	-11.0436
▁weapon	-11.0436
euro	-11.0438
capped	-11.0441
▁austrian	-11.0446
▁safely	-11.0451
▁refus	-11.0472
kyle	-11.0473
deal	-11.0483
▁samples	-11.0485
▁scams	-11.0486
▁hype	-11.0488
▁rip	-11.0493
▁skills	-11.0507
ps	-11.0516
▁academy	-11.0522
▁behavior	-11.0522
▁buccaneers	-11.0522
▁bullpen	-11.0522
▁celebrex	-11.0522
▁nairobi	-11.0522
▁spaniard	-11.0522
▁variety	-11.0522
▁wnba	-11.0522
▁silvi	-11.0522
▁closure	-11.0522
▁beltran	-11.0522
▁tyler	-11.0522
▁interface	-11.0522
▁ugly	-11.0522
▁midnight	-11.0522
▁eurozone	-11.0522
▁cfo	-11.0522
▁taste	-11.0523
▁section	-11.0523
▁occupation	-11.0523
▁crater	-11.0523
▁miracle	-11.0525
▁screens	-11.0534
▁follows	-11.0537
▁towns	-11.0541
▁mere	-11.0543
▁trick	-11.0545
▁$54	-11.0546
▁array	-11.0547
▁administrator	-11.0547
▁hacker	-11.0557
▁arguments	-11.0558
▁runner	-11.057
▁costa	-11.057
mate	-11.057
two	-11.0572
ica	-11.0578
▁convert	-11.0579
▁rogers	-11.0581
▁mega	-11.0585
▁wear	-11.0591
ghz	-11.0594
▁picking	-11.0597
▁82	-11.0609
▁blogs	-11.061
▁connected	-11.0615
▁scan	-11.0617
cutting	-11.062
▁decisive	-11.0633
▁lumber	-11.0633
▁mahmou	-11.0633
▁sprain	-11.0633
▁painkiller	-11.0633
▁tamil	-11.0633
▁confusion	-11.0633
▁continent	-11.0633
▁kumar	-11.0633
▁vogts	-11.0633
▁cement	-11.0634
▁truth	-11.0634
▁ellison	-11.0635
▁nobody	-11.0635
▁pornography	-11.0636
▁duty	-11.0637
▁redmond	-11.0641
▁safer	-11.0643
▁apologize	-11.0648
▁ual	-11.0657
▁tears	-11.0659
▁landslide	-11.0661
▁hurdle	-11.0662
cl	-11.0662
▁collection	-11.0662
▁rivera	-11.067
▁dragg	-11.0676
▁dogs	-11.0686
▁edges	-11.0696
▁profitable	-11.0696
▁investing	-11.0697
▁''	-11.0698
▁$30	-11.0701
▁mess	-11.0714
▁shocked	-11.0715
mar	-11.0729
▁robots	-11.073
▁achieve	-11.0731
▁postpone	-11.0736
▁reviews	-11.0737
hole	-11.074
▁hints	-11.074
▁clijsters	-11.0745
▁hopkins	-11.0745
▁kraft	-11.0745
▁lockheed	-11.0745
▁sainsbury	-11.0745
▁abdullah	-11.0745
▁honeywell	-11.0745
▁jeffrey	-11.0745
▁casey	-11.0746
▁shipped	-11.0746
▁militiamen	-11.0747
▁northwestern	-11.0747
▁plotting	-11.0748
▁santana	-11.0748
▁clubs	-11.0751
▁attackers	-11.0752
▁grabs	-11.0753
▁pending	-11.0754
▁comply	-11.0754
▁bet	-11.0757
▁resist	-11.0759
▁4-2	-11.0759
▁4:	-11.0759
dis	-11.0763
▁brady	-11.0765
▁saved	-11.0765
▁buyer	-11.0767
relatively	-11.0769
▁59	-11.0772
▁expense	-11.0777
▁receives	-11.0786
▁passport	-11.079
▁cox	-11.0792
▁upper	-11.0793
▁qualify	-11.0795
▁staged	-11.0796
▁rank	-11.0797
gm	-11.08
▁headlines	-11.0801
▁philip	-11.0823
▁desktops	-11.0827
west	-11.0835
▁$250	-11.0836
gg	-11.0839
play	-11.0846
pk	-11.0851
▁mauri	-11.0852
▁favour	-11.0857
▁beirut	-11.0859
▁kenteris	-11.0859
▁middlesbrough	-11.0859
▁tribune	-11.0859
▁alcoa	-11.0859
▁duke	-11.0859
▁biotech	-11.0859
▁oscar	-11.086
▁marat	-11.086
▁armstrong	-11.0861
▁checkpoint	-11.0862
▁flex	-11.0864
▁grey	-11.0864
▁yields	-11.0868
▁readers	-11.0871
▁purported	-11.0872
otic	-11.0874
▁0.2	-11.0877
▁barrier	-11.0893
▁houses	-11.0894
▁eagle	-11.0896
▁stages	-11.0896
▁carmaker	-11.0897
▁2.0	-11.0897
▁tower	-11.0898
▁rss	-11.0898
▁rings	-11.0908
▁upheld	-11.0909
▁mood	-11.0913
▁regions	-11.0917
▁erupt	-11.0917
▁whom	-11.092
▁staying	-11.0924
ath	-11.093
▁visited	-11.0933
▁thu	-11.0935
solicit	-11.0935
burg	-11.0937
▁automakers	-11.0938
▁fixing	-11.0945
sign	-11.0949
▁controlled	-11.0954
▁clearly	-11.0954
▁74	-11.0955
▁grave	-11.0957
dy	-11.0965
▁examine	-11.0968
▁welcom	-11.0971
▁tall	-11.0972
size	-11.0973
▁blunkett	-11.0974
▁extradition	-11.0974
▁productivity	-11.0974
▁fujitsu	-11.0974
▁bobcats	-11.0974
▁sequel	-11.0974
▁derby	-11.0974
▁mainframe	-11.0974
▁hamper	-11.0974
▁evacuation	-11.0974
▁wilson	-11.0974
▁hidden	-11.0975
▁shaky	-11.0976
▁macro	-11.0978
▁ross	-11.0979
▁priced	-11.098
▁statements	-11.0981
▁downtown	-11.0983
▁arlington	-11.0986
▁aging	-11.0989
▁relative	-11.0992
▁stemm	-11.1001
remarkable	-11.1004
▁margin	-11.1004
▁(1	-11.1007
▁manny	-11.1009
▁proceed	-11.1009
▁appliance	-11.101
▁acquisitions	-11.101
▁location	-11.101
▁hunters	-11.101
▁guerrilla	-11.1013
bank	-11.1013
▁bombed	-11.1022
▁gi	-11.1032
▁comfortabl	-11.1035
▁implant	-11.1036
▁cds	-11.1038
▁billions	-11.1043
▁fend	-11.1044
▁peacekeep	-11.1045
orcl	-11.1053
▁il	-11.106
▁feds	-11.1071
▁paint	-11.1079
▁attempted	-11.1081
▁float	-11.1089
▁4-1	-11.1089
▁forms	-11.109
▁barclay	-11.109
▁enemy	-11.109
▁lloyd	-11.109
▁mbeki	-11.109
▁opportunities	-11.109
▁sabotage	-11.109
▁neither	-11.1091
▁89	-11.1091
▁knight	-11.1091
▁mainstream	-11.1091
▁villagers	-11.1091
▁ramp	-11.1092
▁stack	-11.1093
▁agriculture	-11.1094
▁indefinitely	-11.1094
▁secured	-11.1094
▁guys	-11.1094
▁racial	-11.1095
▁exile	-11.1096
▁freestyle	-11.1096
▁xinhua	-11.1096
▁outstanding	-11.1098
▁axe	-11.11
▁hoya	-11.1101
▁bosnian	-11.1104
▁duo	-11.1105
▁displays	-11.1106
sen	-11.1109
▁expecting	-11.1111
▁injure	-11.1113
row	-11.1117
guel	-11.1124
▁dair	-11.1127
▁math	-11.1127
▁tons	-11.1127
▁sample	-11.1129
▁$1.1	-11.1131
▁5-1	-11.1133
▁tourist	-11.1135
▁$400	-11.1138
▁pda	-11.1138
ail	-11.1146
▁stamp	-11.1149
▁demonstrate	-11.1151
class	-11.1158
▁resolv	-11.1163
search	-11.1164
▁origin	-11.1165
ford	-11.1167
▁ver	-11.1168
distance	-11.1169
atlantic	-11.1169
forbes	-11.1169
▁col	-11.1179
▁darre	-11.1179
▁installed	-11.1192
▁smooth	-11.1195
achin	-11.1197
ef	-11.1204
▁manufacture	-11.1204
▁except	-11.1206
▁05	-11.1206
▁centrino	-11.1208
▁knowledge	-11.1208
▁megawati	-11.1208
▁emirates	-11.1208
▁intervention	-11.1208
▁kelly	-11.1208
▁biotechnology	-11.1208
▁ralph	-11.1208
▁terrell	-11.1208
▁variant	-11.1208
▁rotation	-11.1209
▁metres	-11.1209
▁papers	-11.1209
▁flies	-11.1209
▁nike	-11.1209
▁collective	-11.121
▁moya	-11.1211
▁downloading	-11.1217
▁occurred	-11.1222
▁plague	-11.1223
▁crop	-11.1234
▁2009	-11.1234
▁robotic	-11.124
burn	-11.1241
osa	-11.1244
ization	-11.1249
▁politician	-11.125
▁smartphone	-11.1251
▁hack	-11.1255
▁distributed	-11.1259
▁billi	-11.1262
▁roads	-11.1263
▁causes	-11.1266
ched	-11.1276
▁improvements	-11.1279
ria	-11.1279
▁sank	-11.1283
▁organizers	-11.1288
▁individuals	-11.129
▁intention	-11.1292
bar	-11.1294
log	-11.1298
▁abus	-11.1301
ona	-11.1304
▁involve	-11.1305
▁cook	-11.1306
:30	-11.1307
▁po	-11.1307
ec	-11.1307
berg	-11.1311
▁drag	-11.1314
▁golfer	-11.1315
▁leak	-11.1317
▁disciplin	-11.132
▁findings	-11.1326
▁arts	-11.1326
▁acrobat	-11.1327
▁bambang	-11.1327
▁currencies	-11.1327
▁huskies	-11.1327
▁laboratories	-11.1327
▁hungarian	-11.1327
▁sneak	-11.1327
▁album	-11.1327
▁interstate	-11.1328
▁parade	-11.1328
▁wells	-11.1328
▁wedding	-11.1328
▁turnaround	-11.1328
▁kentucky	-11.1328
ck	-11.1329
▁authentication	-11.1329
▁restart	-11.133
▁wrist	-11.133
▁forge	-11.1331
▁logic	-11.1334
ux	-11.1335
▁wade	-11.1335
ably	-11.1337
▁pak	-11.1347
▁$40	-11.1348
▁nat	-11.1358
▁michel	-11.1366
▁object	-11.1367
▁slim	-11.1368
▁creator	-11.1374
▁rains	-11.1385
▁lion	-11.1385
era	-11.1395
▁violate	-11.1396
▁$41	-11.1404
water	-11.1404
▁televisions	-11.1407
prince	-11.1409
court	-11.1409
▁voter	-11.1418
ova	-11.1421
ita	-11.1429
▁chose	-11.1432
▁disclose	-11.1433
ini	-11.1435
▁$47	-11.1439
▁resolved	-11.144
▁sho	-11.1445
▁organiz	-11.1446
64	-11.1446
▁dictator	-11.1447
▁serge	-11.1447
▁jimenez	-11.1447
▁1998	-11.1447
▁supercomputing	-11.1447
▁oversight	-11.1447
▁tailback	-11.1448
▁eads	-11.1448
▁dedicated	-11.1449
▁grass	-11.1449
▁manila	-11.1449
▁charity	-11.145
▁creative	-11.1451
▁manuel	-11.1453
settling	-11.1456
cr	-11.1459
▁recruits	-11.146
▁milk	-11.146
▁nu	-11.1464
▁ph	-11.1465
sw	-11.1472
▁19-	-11.1472
▁rack	-11.1476
▁agreements	-11.1481
ran	-11.1481
▁riding	-11.1484
▁haa	-11.1484
▁woo	-11.1486
band	-11.1491
▁odd	-11.1494
▁difference	-11.1495
▁boat	-11.1508
▁ambush	-11.1515
ability	-11.152
▁ore	-11.1521
ru	-11.153
▁accelerate	-11.1548
▁hosting	-11.1557
▁quarters	-11.1565
▁visual	-11.1569
▁cyprus	-11.1569
▁jintao	-11.1569
▁smoking	-11.1569
▁drift	-11.1569
▁approximately	-11.157
▁dance	-11.157
▁mylan	-11.157
▁kyi	-11.1571
▁simultaneously	-11.1572
▁stream	-11.1575
▁excited	-11.1575
▁marvel	-11.1576
▁shelves	-11.1577
▁cnet	-11.158
▁oversee	-11.1581
▁adams	-11.1582
▁ideas	-11.1582
▁ioc	-11.1583
ions	-11.1585
ify	-11.1587
ell	-11.1588
▁4000	-11.1588
▁purchases	-11.1588
▁mile	-11.1589
▁wrapped	-11.1591
▁gray	-11.1596
▁tired	-11.1598
▁yu	-11.16
100	-11.1601
▁trojans	-11.1603
▁jerr	-11.1608
▁ea	-11.1609
team	-11.161
llip	-11.1617
▁120	-11.1624
rie	-11.1628
▁bee	-11.1631
▁decid	-11.1632
▁spur	-11.1635
mails	-11.1638
action	-11.1643
▁disputes	-11.1644
▁zarqawi	-11.1649
▁squeeze	-11.1653
powered	-11.1654
psft	-11.1654
box	-11.1659
▁contribute	-11.166
▁writers	-11.1661
11	-11.1662
▁afghans	-11.1664
▁speeds	-11.1669
▁argue	-11.1672
▁$48	-11.1678
▁mir	-11.168
ups	-11.1681
-21	-11.1682
ara	-11.1683
▁bust	-11.1687
▁sandwich	-11.1689
▁balco	-11.1692
▁gymnast	-11.1693
▁barbados	-11.1693
▁cambridge	-11.1693
▁mojave	-11.1693
▁soybean	-11.1693
▁anxious	-11.1693
▁empty	-11.1693
▁lunch	-11.1693
▁rubber	-11.1693
▁fruit	-11.1693
▁proceedings	-11.1694
▁indicator	-11.1694
▁barrage	-11.1694
sari	-11.1694
▁sprinter	-11.1695
0-0	-11.1695
▁bueno	-11.1696
▁writing	-11.1699
▁theater	-11.1706
▁et	-11.1708
▁rib	-11.1711
oc	-11.1714
▁offseason	-11.1716
▁thi	-11.1716
▁restrictions	-11.1716
▁colo	-11.1718
pec	-11.1718
▁bars	-11.1718
▁processes	-11.1719
ging	-11.1731
▁indication	-11.1736
▁investigated	-11.1738
▁glass	-11.1743
ical	-11.1744
▁sleep	-11.1745
▁interesting	-11.1747
▁surfers	-11.1748
▁doors	-11.1756
▁sail	-11.1765
▁timing	-11.1771
▁mit	-11.1773
su	-11.1774
ong	-11.1774
ep	-11.1775
▁dealing	-11.1777
▁margins	-11.1779
disclosed	-11.1779
ama	-11.1779
sch	-11.1783
▁taps	-11.179
produc	-11.1791
▁simon	-11.1792
use	-11.1798
▁submitt	-11.1798
▁ft	-11.1801
▁skip	-11.1801
ack	-11.1803
▁elen	-11.1805
▁banker	-11.1808
▁crush	-11.1813
▁calgary	-11.1818
▁dementieva	-11.1818
▁quattrone	-11.1818
▁apparel	-11.1818
▁blitz	-11.1818
▁lilly	-11.1818
▁thunderbird	-11.1818
▁governance	-11.1818
▁evil	-11.1818
▁toxic	-11.1818
▁clara	-11.1818
▁zero	-11.1818
▁coordinator	-11.1818
▁mu	-11.1818
▁tyron	-11.1819
▁flock	-11.1819
▁nepalese	-11.182
▁arroyo	-11.182
▁automatic	-11.1821
▁2010	-11.1823
▁apology	-11.1824
▁mainland	-11.1825
▁westwood	-11.1825
▁4-6	-11.1827
▁portion	-11.1829
▁alarm	-11.1829
▁soviet	-11.183
▁clouds	-11.1833
▁shy	-11.1837
▁chemicals	-11.1837
▁engaged	-11.1842
pnet	-11.1843
▁20000	-11.1847
▁supersonics	-11.1849
▁lending	-11.1852
▁emi	-11.1854
▁2.5	-11.1856
▁hol	-11.1864
▁designer	-11.1869
bat	-11.1869
ipped	-11.187
▁architect	-11.1872
race	-11.1873
▁technique	-11.1874
▁counterfeit	-11.188
▁letters	-11.1882
ily	-11.1882
▁todd	-11.1885
load	-11.1907
▁sore	-11.1908
▁alien	-11.1915
akar	-11.1916
▁ji	-11.1934
hand	-11.1941
▁salvador	-11.1943
▁illness	-11.1943
18	-11.1943
▁searches	-11.1944
▁wreck	-11.1944
▁gatlin	-11.1944
▁influential	-11.1944
▁schroeder	-11.1944
▁transplant	-11.1944
▁hawaii	-11.1944
▁disclosure	-11.1944
▁volleyball	-11.1944
▁oxygen	-11.1944
▁defiant	-11.1944
▁duties	-11.1944
▁gilbert	-11.1944
▁jockey	-11.1944
▁monster	-11.1945
gan	-11.1946
▁telekom	-11.1946
▁skies	-11.1947
▁keyboard	-11.1948
▁experiments	-11.195
▁marcus	-11.1951
▁soften	-11.1952
▁hometown	-11.1954
▁suns	-11.1958
▁shrugged	-11.1958
▁keen	-11.1961
▁cited	-11.1972
let	-11.1972
▁valentin	-11.1976
▁deficits	-11.1984
▁hearts	-11.1985
▁bury	-11.1986
▁owns	-11.1994
▁tips	-11.1998
gra	-11.1998
▁commit	-11.2003
▁dodge	-11.2007
▁printer	-11.2019
russian	-11.2021
▁lg	-11.2025
goog	-11.2033
▁winless	-11.2036
▁tag	-11.2038
▁sliding	-11.2039
▁bump	-11.2039
▁hide	-11.2041
▁tank	-11.2049
▁79	-11.205
▁bosnia	-11.2057
▁divide	-11.2059
38	-11.2061
oli	-11.2061
▁eager	-11.2062
▁quotas	-11.2066
right	-11.2066
▁fundamental	-11.2068
▁upgrad	-11.2068
del	-11.207
▁declaration	-11.2072
▁donovan	-11.2072
▁likud	-11.2072
▁nelson	-11.2072
▁portugal	-11.2072
▁undefeated	-11.2072
▁spectrum	-11.2073
▁caracas	-11.2073
▁toolbar	-11.2073
▁appointment	-11.2074
▁harder	-11.2075
▁testify	-11.2076
▁lara	-11.2078
▁tea	-11.2078
▁novel	-11.2079
▁defy	-11.208
▁4-3	-11.2082
▁hails	-11.2082
bodan	-11.2087
hop	-11.2087
70	-11.2096
▁boxes	-11.2096
▁sergi	-11.2098
▁dismiss	-11.2102
▁borrowing	-11.2105
▁constitutional	-11.2108
▁enhanced	-11.211
▁attacker	-11.2112
▁photograph	-11.2112
▁notable	-11.2116
ow	-11.2121
▁panels	-11.2128
▁apps	-11.2129
cular	-11.2129
▁folks	-11.2131
km	-11.2134
▁strengthening	-11.2136
▁transaction	-11.2137
▁buck	-11.2137
▁incidents	-11.214
▁nv	-11.2144
mpaa	-11.2152
▁startup	-11.2152
▁attorneys	-11.2153
▁endorse	-11.2156
cast	-11.2157
▁aires	-11.2163
security	-11.2164
pr	-11.2164
▁pitt	-11.2178
ami	-11.2186
▁$300	-11.2188
▁sch	-11.219
▁shops	-11.2194
▁youth	-11.2194
▁casinos	-11.2196
▁layer	-11.2197
compatible	-11.2202
▁artificial	-11.2202
▁comprehensive	-11.2202
▁halifax	-11.2202
▁havana	-11.2202
▁ramadi	-11.2202
▁unilever	-11.2202
▁asteroid	-11.2202
▁fiber	-11.2202
▁hendrick	-11.2202
▁oval	-11.2202
▁conclusion	-11.2202
▁gradual	-11.2202
▁remainder	-11.2202
▁disorder	-11.2202
▁anywhere	-11.2203
▁ballistic	-11.2203
▁mastercard	-11.2203
▁sachs	-11.2203
▁plate	-11.2204
▁afc	-11.2204
▁invitational	-11.2205
▁diesel	-11.2206
gl	-11.2207
▁deployed	-11.2208
▁myskin	-11.2208
▁100000	-11.2213
▁riaa	-11.2214
▁rely	-11.2216
▁58	-11.2217
▁princess	-11.2219
residential	-11.2219
▁victor	-11.222
▁hiding	-11.2227
▁surges	-11.2227
▁artists	-11.2228
▁sha	-11.2228
▁contribut	-11.2229
▁uncovered	-11.223
▁ubs	-11.223
▁techweb	-11.2237
▁ham	-11.2248
▁$160	-11.2252
▁hyn	-11.2252
▁headline	-11.2253
▁banner	-11.2259
▁challenged	-11.2265
▁saga	-11.2265
wide	-11.2275
▁hardie	-11.2281
▁obtained	-11.2282
virus	-11.2293
▁rocky	-11.2293
▁trim	-11.2297
suu	-11.2299
14	-11.2299
ium	-11.23
cell	-11.2304
▁bone	-11.2305
▁extremists	-11.2306
page	-11.2309
▁delivering	-11.2309
▁adapt	-11.2315
▁talked	-11.2316
▁rage	-11.2319
▁secrets	-11.2326
▁minds	-11.2326
ou	-11.2328
▁morris	-11.2334
▁gesture	-11.2334
▁segment	-11.2334
▁silent	-11.2334
▁bernard	-11.2334
▁liberation	-11.2334
▁furious	-11.2334
▁dampen	-11.2335
▁torre	-11.2335
▁marshall	-11.2336
▁unclear	-11.2337
▁$17	-11.2339
▁essential	-11.2339
▁testified	-11.2341
▁followers	-11.2342
▁ucla	-11.2344
atch	-11.2348
▁swarm	-11.2352
▁submit	-11.2354
▁est	-11.2357
▁dismisse	-11.2358
▁drugmaker	-11.2362
▁shattered	-11.2363
▁sister	-11.2366
▁pot	-11.2367
▁palmer	-11.237
wi	-11.2371
▁arti	-11.2371
▁asean	-11.2373
▁fortunes	-11.2375
▁awaiting	-11.2377
hane	-11.2385
▁ranging	-11.239
ago	-11.24
▁pit	-11.2402
▁uniform	-11.2403
▁premium	-11.2403
▁splash	-11.2405
aig	-11.2407
▁jolt	-11.2409
▁deadlock	-11.2414
▁transform	-11.2416
force	-11.2423
▁mat	-11.2425
orient	-11.2428
▁bearing	-11.2428
demand	-11.2429
▁wheel	-11.2429
intc	-11.2431
wmt	-11.2431
147	-11.2432
▁hk	-11.2441
af	-11.2444
▁mor	-11.2448
▁lithuania	-11.2452
▁$1.3	-11.2458
▁pas	-11.2459
▁sooners	-11.2459
▁desire	-11.2467
▁burundi	-11.2467
▁coulthard	-11.2467
▁grenada	-11.2467
▁jboss	-11.2467
▁innocent	-11.2467
▁personnel	-11.2467
▁junichi	-11.2467
▁aftermath	-11.2467
▁coughlin	-11.2467
▁disgrace	-11.2467
▁introduction	-11.2467
▁copper	-11.2468
▁bellsouth	-11.2468
▁amendment	-11.2468
▁goalkeeper	-11.2468
▁migration	-11.2468
▁festival	-11.2468
▁cink	-11.2468
▁intent	-11.2469
▁stories	-11.2469
tm	-11.247
▁fence	-11.2471
brand	-11.2471
▁bode	-11.2472
▁ftc	-11.2472
▁musicmatch	-11.2473
▁petition	-11.2473
▁disabled	-11.2474
▁kan	-11.2475
▁campaigns	-11.2477
▁nicola	-11.2481
▁texans	-11.2487
uch	-11.2488
▁$44	-11.2491
▁fares	-11.2491
track	-11.2503
▁torture	-11.2504
▁aig	-11.2505
ena	-11.2509
ities	-11.2512
▁bmw	-11.2521
ice	-11.2528
▁stra	-11.2532
▁sms	-11.2533
▁rebuild	-11.2538
▁inspector	-11.2542
▁franklin	-11.2546
fold	-11.2547
▁hell	-11.2558
▁initiatives	-11.2561
▁fishing	-11.2562
silicon	-11.2564
tte	-11.2564
▁disrupted	-11.2566
ris	-11.2577
▁convince	-11.2581
dal	-11.2584
▁25-	-11.2586
▁tele	-11.2588
▁skin	-11.2595
tur	-11.2596
▁pin	-11.26
▁caminiti	-11.2602
▁convincing	-11.2602
▁mondavi	-11.2602
▁scrutiny	-11.2602
▁spencer	-11.2602
▁throne	-11.2602
▁depart	-11.2602
▁aftershocks	-11.2603
▁ahmed	-11.2603
▁monkey	-11.2603
▁yuan	-11.2604
▁painful	-11.2605
▁laptops	-11.2605
▁wrote	-11.2606
▁guess	-11.2608
▁gallon	-11.2608
▁duel	-11.2609
▁acquitt	-11.2611
▁conceded	-11.2612
▁$7.7	-11.2613
▁contention	-11.2614
▁builds	-11.2615
▁rand	-11.2616
▁approaches	-11.2617
▁utd	-11.2617
▁reiterat	-11.2621
▁vo	-11.2623
44	-11.2626
▁ethics	-11.2629
5-2	-11.2631
▁founders	-11.2637
▁halftime	-11.2644
▁affiliate	-11.2659
▁rumors	-11.2661
▁berti	-11.2661
▁1.7	-11.2664
▁layoffs	-11.2669
▁arriv	-11.2669
▁bucks	-11.267
▁captive	-11.2679
▁brac	-11.268
▁honour	-11.268
▁rumor	-11.2681
▁preparation	-11.2684
▁dash	-11.2688
▁thousand	-11.2695
▁inspire	-11.2695
piracy	-11.2701
edge	-11.2705
▁6000	-11.2708
▁restaurants	-11.271
▁cor	-11.2711
▁$14	-11.2716
▁mmo	-11.2721
▁god	-11.2723
ect	-11.2724
▁substantial	-11.2726
▁advisers	-11.2729
▁luck	-11.2729
▁bryan	-11.273
▁debates	-11.2731
▁counts	-11.2734
▁kidnap	-11.2739
▁amnesty	-11.2739
▁glimpse	-11.2739
▁peninsula	-11.2739
▁ramadan	-11.2739
▁verisign	-11.2739
▁arnold	-11.2739
▁communities	-11.2739
▁lexmark	-11.2739
▁dennis	-11.2739
▁slipping	-11.2739
▁sasser	-11.2739
▁mound	-11.274
▁kidney	-11.274
▁prevail	-11.274
▁earthlink	-11.274
▁sounds	-11.2741
▁wpp	-11.2741
▁brent	-11.2741
▁lance	-11.2742
▁powerbook	-11.2742
▁hazard	-11.2742
▁monopoly	-11.2742
▁trillion	-11.2743
aught	-11.2744
▁advisory	-11.2748
▁plo	-11.2748
▁guillen	-11.2748
▁compil	-11.275
pound	-11.275
▁imam	-11.2752
vis	-11.2752
▁damon	-11.2753
nc	-11.2755
▁smallest	-11.2758
▁loud	-11.276
▁leftist	-11.2762
▁upward	-11.2764
▁iv	-11.2766
▁armor	-11.2768
▁lan	-11.2782
▁issu	-11.2783
▁concept	-11.2786
▁$16	-11.279
▁dia	-11.279
jo	-11.2791
▁briefs	-11.2798
▁preparations	-11.2798
▁ki	-11.2801
▁dal	-11.2807
▁crushed	-11.2808
ok	-11.2811
grade	-11.2815
▁sad	-11.2816
▁neighborhood	-11.2819
▁fumble	-11.2822
▁representative	-11.2822
▁whale	-11.2823
▁viewing	-11.2826
▁turnovers	-11.2827
uni	-11.2827
▁locations	-11.2834
▁institutions	-11.2837
▁gifts	-11.2837
▁lou	-11.2837
▁kent	-11.2845
ins	-11.2845
▁widened	-11.2854
web	-11.2856
some	-11.2858
digit	-11.2858
▁evacuate	-11.2859
▁distribute	-11.2876
▁municipal	-11.2878
▁amazing	-11.2878
▁bundesliga	-11.2878
▁gonaives	-11.2878
▁luxembourg	-11.2878
▁nagpur	-11.2878
▁srinagar	-11.2878
▁quebec	-11.2878
▁karachi	-11.2878
▁correspondent	-11.2878
▁lumpur	-11.2878
▁charlton	-11.2878
▁dublin	-11.2878
▁randolph	-11.2879
▁definitive	-11.2879
▁judgment	-11.2879
▁confrontation	-11.2879
▁mls	-11.2879
▁ruben	-11.2879
▁enrich	-11.2879
▁category	-11.2881
▁clubhouse	-11.2881
▁climbing	-11.2882
▁counties	-11.2882
trapped	-11.2883
▁funk	-11.2884
▁5-4	-11.2885
▁custom	-11.2885
▁burned	-11.2886
▁vick	-11.2889
▁recognition	-11.289
▁foes	-11.2894
▁bruised	-11.2895
▁keefe	-11.2895
▁assured	-11.29
▁bypass	-11.29
▁reshuffle	-11.2904
▁wet	-11.2905
▁ar	-11.2916
hl	-11.2916
▁mud	-11.2917
▁clone	-11.2925
▁wages	-11.2935
▁coles	-11.2948
▁soil	-11.295
▁suse	-11.2955
▁sidelines	-11.2962
spired	-11.2962
▁grown	-11.2964
▁sealed	-11.2965
▁stress	-11.2966
▁gadget	-11.2968
▁dose	-11.2969
▁ward	-11.297
▁detected	-11.2971
▁reg	-11.2972
▁walter	-11.2972
hot	-11.2973
▁fo	-11.2975
▁92	-11.298
anticipated	-11.2981
http	-11.2981
▁mps	-11.2981
▁130	-11.2991
▁ju	-11.2997
▁miner	-11.3001
▁routers	-11.3002
▁ru	-11.3002
-2	-11.3004
▁shoe	-11.3006
▁cracked	-11.3007
▁warrant	-11.3009
ger	-11.3009
▁8:	-11.3016
▁invitation	-11.3016
▁formats	-11.3017
▁fernando	-11.3019
▁herself	-11.3019
▁prototype	-11.3019
▁sebasti	-11.3019
▁svetl	-11.3019
▁ceiling	-11.3019
▁icahn	-11.3019
▁medicare	-11.3019
▁pavano	-11.3019
▁diving	-11.3019
▁denial	-11.302
▁battleground	-11.302
▁henin	-11.302
▁legendary	-11.302
▁capping	-11.3021
▁burden	-11.3022
▁cancelled	-11.3022
▁wmc	-11.3023
▁roadside	-11.3023
▁cole	-11.3023
▁powerhouse	-11.3024
▁branches	-11.3025
▁modified	-11.3025
▁highbury	-11.3025
qtr	-11.3027
▁inches	-11.3029
proving	-11.3029
lik	-11.303
▁dirty	-11.303
▁vault	-11.3031
▁slice	-11.3034
sure	-11.3035
five	-11.3035
shack	-11.3036
▁weren	-11.3037
▁overtake	-11.3038
▁executed	-11.304
▁cluster	-11.3042
bsp	-11.3043
▁mouth	-11.3045
▁viewers	-11.3047
▁looming	-11.3054
:00	-11.3056
▁tar	-11.3059
▁conoco	-11.3061
▁blows	-11.3065
▁consolidate	-11.3069
ze	-11.307
▁jeter	-11.3072
▁websites	-11.3073
▁showcase	-11.3075
▁thoughts	-11.3088
van	-11.3089
uc	-11.3092
▁tags	-11.3093
▁laugh	-11.3098
▁scaled	-11.3098
▁separatists	-11.3107
▁dissident	-11.3108
▁affair	-11.311
▁bargaining	-11.3111
▁campaigning	-11.3113
▁gang	-11.3118
▁height	-11.3121
uri	-11.3123
identified	-11.3123
went	-11.3129
▁paulo	-11.3129
▁resulted	-11.3133
dell	-11.3134
16	-11.3136
mm	-11.3139
▁albert	-11.3142
▁militias	-11.3143
▁antarctic	-11.3146
▁serbia	-11.3153
mu	-11.3159
▁generate	-11.316
but	-11.3161
▁barghouti	-11.3162
▁consumption	-11.3162
▁elbow	-11.3162
▁griffin	-11.3162
▁leisure	-11.3162
▁nissan	-11.3162
▁rutherford	-11.3162
▁nevada	-11.3162
▁brutal	-11.3162
▁ufj	-11.3162
▁diamond	-11.3162
▁bremen	-11.3162
▁stopping	-11.3162
▁questioning	-11.3163
▁medallist	-11.3163
▁nomination	-11.3163
▁persistent	-11.3164
clk	-11.3165
▁oslo	-11.3165
▁jimmy	-11.3166
▁medics	-11.317
▁courtroom	-11.3171
▁pal	-11.3171
▁hotmail	-11.3174
▁blues	-11.3184
▁dipped	-11.3186
▁dome	-11.3191
▁ala	-11.3196
▁flare	-11.3199
law	-11.3199
ries	-11.3202
▁goog	-11.3204
▁weakened	-11.3205
▁psft	-11.3207
los	-11.3209
▁jens	-11.3218
san	-11.3224
▁leaked	-11.3226
mac	-11.323
neal	-11.3231
▁glaciers	-11.3238
▁damag	-11.324
▁drum	-11.3243
▁canon	-11.3244
▁ming	-11.3245
zed	-11.3246
▁initially	-11.3251
▁method	-11.3256
▁microprocessor	-11.3256
88	-11.3265
▁tanker	-11.3265
▁eating	-11.3266
rigging	-11.3268
friendly	-11.327
gu	-11.3282
▁salvage	-11.3291
▁frequent	-11.3294
▁undermine	-11.3294
▁quarterbacks	-11.3301
▁5:	-11.3304
ification	-11.3306
▁revealing	-11.3307
▁beneath	-11.3307
▁capriati	-11.3307
▁clemson	-11.3307
▁inevitable	-11.3307
▁johannesburg	-11.3307
▁surveillance	-11.3307
▁reaffirm	-11.3307
▁jenkins	-11.3307
hardenne	-11.3307
▁landscape	-11.3307
▁ponting	-11.3307
▁vacation	-11.3307
▁graham	-11.3307
▁genetically	-11.3308
▁shortfall	-11.3308
▁possession	-11.3308
▁joseph	-11.3308
▁otherwise	-11.3309
▁goosen	-11.331
▁sorry	-11.331
▁paramilitar	-11.3313
▁sheikh	-11.3315
▁frame	-11.3319
▁walkman	-11.3319
▁lie	-11.3322
▁midday	-11.3322
▁useful	-11.3324
▁rb	-11.3332
▁aggressively	-11.3336
▁sexually	-11.3336
▁350	-11.3339
▁shoots	-11.3343
▁seeming	-11.3345
▁fil	-11.3346
▁zoo	-11.3351
▁conventional	-11.3352
jay	-11.3355
bury	-11.3362
▁borders	-11.3364
▁rever	-11.3375
▁wis	-11.3379
▁ol	-11.3383
oldest	-11.3384
▁protected	-11.3384
▁murdered	-11.3387
trust	-11.3402
tified	-11.3403
▁advertisement	-11.3405
▁argument	-11.3406
▁adult	-11.3406
▁approached	-11.3407
tley	-11.3408
▁indy	-11.3413
▁discussion	-11.3414
president	-11.3414
most	-11.3415
▁lett	-11.3416
voting	-11.3417
▁fold	-11.3421
▁myer	-11.3425
▁commanders	-11.3426
▁genes	-11.3427
▁resource	-11.3431
▁pause	-11.3434
bian	-11.3438
amd	-11.344
▁unveiling	-11.3444
▁$19	-11.3444
▁clinic	-11.3446
▁load	-11.3447
▁factors	-11.345
tata	-11.3453
▁1.1	-11.3453
▁abidjan	-11.3454
▁bronx	-11.3454
▁external	-11.3454
▁horror	-11.3454
▁immigration	-11.3454
▁kellogg	-11.3454
▁mugabe	-11.3454
▁nightclub	-11.3454
▁scramjet	-11.3454
▁poult	-11.3454
▁liga	-11.3454
▁shui	-11.3454
▁spree	-11.3454
▁assistance	-11.3454
▁hamza	-11.3454
▁filter	-11.3455
▁bradley	-11.3455
▁bullish	-11.3455
▁wallace	-11.3455
▁orthodox	-11.3455
▁tyson	-11.3456
02	-11.3456
▁turin	-11.3456
▁automobile	-11.3456
▁adoption	-11.3458
▁township	-11.3459
▁elderly	-11.3462
▁directories	-11.3463
▁hospitals	-11.3464
▁seals	-11.3465
▁marketplace	-11.3469
▁corporations	-11.3472
ero	-11.3472
▁actor	-11.3473
▁intro	-11.3473
▁outfit	-11.3476
▁(8	-11.348
▁ec	-11.348
▁acting	-11.3483
▁browsers	-11.3491
art	-11.3493
▁2004)	-11.3493
▁investigations	-11.3493
▁stall	-11.3509
▁grounds	-11.3511
400	-11.3516
▁mortgages	-11.3517
▁passwords	-11.3518
▁represents	-11.3518
bertr	-11.3522
▁hurting	-11.3537
kg	-11.3537
▁resident	-11.3539
▁policeman	-11.3539
▁eliminated	-11.3541
▁scream	-11.3545
▁restrict	-11.3548
▁lists	-11.3549
▁holders	-11.3552
▁phon	-11.3553
▁warlord	-11.3555
▁fortune	-11.3557
▁negotiator	-11.3557
▁australians	-11.3559
home	-11.3559
oya	-11.3561
▁rbi	-11.3561
first	-11.3565
▁josh	-11.3566
rus	-11.3571
▁crowds	-11.3576
founder	-11.3576
▁imagine	-11.3585
▁pav	-11.3587
▁contend	-11.3592
▁sr	-11.3601
▁excess	-11.3602
▁appetite	-11.3603
▁avenue	-11.3603
▁bilateral	-11.3603
▁genome	-11.3603
▁mcnabb	-11.3603
▁spawn	-11.3603
▁trinidad	-11.3603
▁uganda	-11.3603
▁athlon	-11.3603
▁ossetia	-11.3603
▁parcells	-11.3603
▁annika	-11.3603
▁memories	-11.3603
▁thick	-11.3603
▁framework	-11.3603
▁vaughan	-11.3603
▁forthcoming	-11.3604
▁breast	-11.3604
▁francis	-11.3604
▁1995	-11.3605
▁barros	-11.3605
▁southwestern	-11.3606
▁malone	-11.3607
▁orbitz	-11.3608
▁slovakia	-11.3608
▁$21	-11.3609
▁bets	-11.3612
▁downward	-11.3613
▁jenni	-11.3616
▁dsl	-11.3616
ola	-11.3617
▁lung	-11.362
▁reminder	-11.3622
▁upstart	-11.3622
▁recorders	-11.3622
rnhard	-11.3624
▁bud	-11.3629
▁beam	-11.363
▁cooling	-11.363
elix	-11.363
▁retires	-11.3631
ock	-11.3637
▁medalist	-11.3637
58	-11.3643
▁fr	-11.3648
pt	-11.3648
start	-11.3652
▁chant	-11.3653
▁22-	-11.3661
beat	-11.3662
▁orcl	-11.3663
▁definition	-11.3664
▁norodo	-11.3667
▁hearings	-11.3677
▁temperatures	-11.3677
▁chill	-11.3679
▁foxboro	-11.3683
▁syn	-11.3684
75	-11.3688
24	-11.3689
▁rescued	-11.3696
▁veto	-11.3697
▁kid	-11.3698
▁echo	-11.3699
▁prefer	-11.3699
▁confront	-11.3699
▁pirat	-11.3702
▁doom	-11.3705
▁turner	-11.3705
▁sum	-11.3708
▁athlete	-11.3711
▁prayers	-11.3712
ssed	-11.3713
▁holder	-11.3714
▁entrepreneur	-11.3714
▁violation	-11.3715
fund	-11.3716
148	-11.3719
▁decisions	-11.3724
▁tension	-11.3724
▁requested	-11.3725
rina	-11.3726
check	-11.3728
▁ignore	-11.3734
ros	-11.3738
▁104	-11.3741
▁channels	-11.3746
▁covering	-11.3753
▁ati	-11.3753
▁feat	-11.3754
▁arkansas	-11.3755
▁bounty	-11.3755
▁canaveral	-11.3755
▁compact	-11.3755
▁consulting	-11.3755
▁delphi	-11.3755
▁jupiter	-11.3755
▁provincial	-11.3755
▁reclaim	-11.3755
▁rejoin	-11.3755
▁slalom	-11.3755
▁universities	-11.3755
▁strict	-11.3755
▁sybase	-11.3755
▁lazard	-11.3755
▁marwan	-11.3755
▁anticipation	-11.3755
▁mask	-11.3755
▁consolidation	-11.3755
trade	-11.3755
▁hottest	-11.3755
▁extraordinary	-11.3756
▁commentary	-11.3756
gs	-11.3756
▁81	-11.3757
▁chasing	-11.3758
▁healthcare	-11.3758
▁centuries	-11.3758
▁nail	-11.3759
▁married	-11.376
gram	-11.3761
▁harrison	-11.3762
▁iceland	-11.3763
▁displaced	-11.3764
▁meat	-11.3767
▁outlaw	-11.3769
▁sinn	-11.3771
▁alberta	-11.3771
▁cord	-11.3772
▁bugs	-11.3774
▁indexes	-11.3774
▁provisional	-11.3776
▁tariffs	-11.3781
▁reeling	-11.3781
ui	-11.3782
▁stent	-11.3782
▁$45	-11.3787
▁sh	-11.3793
▁punt	-11.3802
▁projected	-11.3802
uck	-11.3808
▁exist	-11.381
▁petrol	-11.381
only	-11.3813
-43	-11.3815
▁ri	-11.3823
▁jumping	-11.3823
▁discussed	-11.3824
▁ear	-11.3826
▁kh	-11.3833
pate	-11.384
▁notebooks	-11.3845
▁surf	-11.3856
▁grade	-11.3856
yer	-11.3857
▁delight	-11.3858
▁principle	-11.3864
▁root	-11.3867
▁specification	-11.3868
sponsored	-11.387
session	-11.387
century	-11.387
techweb	-11.387
▁airports	-11.3874
▁bert	-11.3878
cap	-11.388
▁belt	-11.3884
▁lender	-11.3885
▁loose	-11.3892
▁cure	-11.3893
▁speaker	-11.3893
▁anil	-11.3899
more	-11.3902
▁glitch	-11.3905
▁bristol	-11.3909
▁commodity	-11.3909
▁equivalent	-11.3909
▁guerrer	-11.3909
▁lawrence	-11.3909
▁bulk	-11.3909
▁jfk	-11.3909
▁feud	-11.3909
▁securing	-11.3909
▁cyclist	-11.3909
▁sql	-11.3909
▁burial	-11.3909
▁providence	-11.3909
▁slaying	-11.3909
▁alcohol	-11.3909
▁ligament	-11.3909
▁underground	-11.391
▁multibillion	-11.391
▁90-	-11.391
▁jordanian	-11.391
▁numero	-11.3911
▁fiat	-11.3912
▁routes	-11.3913
▁marketwatch	-11.3914
▁0.6	-11.3915
org	-11.3915
pp	-11.392
▁invade	-11.392
▁addresses	-11.3924
▁lars	-11.3924
ore	-11.3934
▁pink	-11.3935
▁stats	-11.3941
▁slumped	-11.3945
▁petro	-11.3947
▁sole	-11.3947
▁95	-11.395
▁warne	-11.3953
▁roots	-11.3957
▁smashed	-11.3957
▁entirely	-11.3958
▁facts	-11.3966
▁shoes	-11.3974
pm	-11.3984
iss	-11.3985
▁crushing	-11.3987
▁tenn	-11.3997
ud	-11.3998
▁moons	-11.3999
mor	-11.4
▁epic	-11.4002
cash	-11.4011
▁aware	-11.4014
▁franc	-11.4018
network	-11.4018
▁lava	-11.4018
45	-11.4019
▁substance	-11.4024
▁dinosaur	-11.4025
▁badly	-11.4031
▁chipset	-11.4035
▁stole	-11.4052
▁dynamic	-11.4054
▁greene	-11.4057
▁23-	-11.4059
▁arguing	-11.4065
▁atrocities	-11.4065
▁bellwether	-11.4065
▁heritage	-11.4065
▁registration	-11.4065
▁roethlisberger	-11.4065
▁beauty	-11.4065
▁repeal	-11.4065
▁ransom	-11.4065
▁surplus	-11.4065
▁mccain	-11.4065
▁glance	-11.4065
▁qatar	-11.4065
▁kiwi	-11.4065
▁junta	-11.4065
▁retiring	-11.4065
▁everywhere	-11.4065
▁finnish	-11.4065
▁der	-11.4066
▁reception	-11.4066
hp	-11.4066
▁puert	-11.4066
▁generator	-11.4066
▁revolutionary	-11.4067
▁5-0	-11.4068
▁cream	-11.4069
▁eruption	-11.4069
▁suspicious	-11.4069
▁novak	-11.407
smic	-11.4071
▁uc	-11.4071
▁tracy	-11.4072
nz	-11.4073
▁hunter	-11.4073
▁img	-11.4074
▁frequency	-11.4074
▁coral	-11.4075
▁equipp	-11.4075
▁intc	-11.4076
▁brit	-11.4076
▁robin	-11.4081
▁listing	-11.4082
mann	-11.4083
see	-11.4085
500	-11.4086
▁lucky	-11.4088
▁beck	-11.409
▁pirate	-11.409
aid	-11.4092
drive	-11.4095
press	-11.4104
▁stat	-11.4107
▁moo	-11.4117
▁cracks	-11.4119
▁requirements	-11.412
17	-11.4127
▁thank	-11.4129
▁casting	-11.4134
▁inspectors	-11.4136
wich	-11.4143
▁superb	-11.4156
take	-11.4157
▁reliev	-11.4163
ator	-11.4164
▁glove	-11.4165
▁caps	-11.4166
▁usage	-11.4167
kick	-11.4178
▁lease	-11.4178
bloomberg	-11.4185
democracy	-11.4185
microsoft	-11.4185
▁columnist	-11.4186
▁saint	-11.4188
report	-11.4191
▁degree	-11.4192
▁juli	-11.4194
▁contender	-11.4197
▁performed	-11.4199
▁$600	-11.4209
▁factions	-11.4216
enko	-11.4218
▁sophisticat	-11.4222
voluntary	-11.4223
▁adelaide	-11.4223
▁consulate	-11.4223
▁encouraging	-11.4223
▁fraudulent	-11.4223
▁mckenzie	-11.4223
▁patience	-11.4223
▁reorganization	-11.4223
▁thieves	-11.4223
▁bishop	-11.4224
▁clutch	-11.4224
▁heaven	-11.4224
▁hudson	-11.4224
▁notorious	-11.4224
▁simplify	-11.4224
▁cayman	-11.4224
▁comparison	-11.4224
▁cousin	-11.4224
▁grain	-11.4224
▁rift	-11.4224
interoperability	-11.4224
▁viagra	-11.4224
▁barrett	-11.4225
▁implementation	-11.4225
▁affordable	-11.4225
▁1970	-11.4226
▁spat	-11.4226
▁glow	-11.4228
▁bashir	-11.4228
ves	-11.423
▁midsize	-11.4231
13	-11.4237
rder	-11.4237
visible	-11.4237
▁embarrassing	-11.4237
▁misleading	-11.4238
▁passion	-11.4238
▁depth	-11.4239
ative	-11.4239
ito	-11.4243
▁convinced	-11.4248
▁thrilling	-11.4255
▁complain	-11.4256
▁character	-11.4257
adorn	-11.4258
raw	-11.426
200	-11.4262
▁stunt	-11.4262
▁payton	-11.4264
▁requir	-11.4268
▁satellites	-11.4269
▁achieved	-11.4275
hr	-11.4276
▁medicines	-11.4279
▁comfort	-11.4281
▁hbos	-11.4283
ique	-11.4285
rock	-11.4296
▁2.8	-11.4303
15	-11.4306
▁georgian	-11.431
▁missions	-11.4311
third	-11.4312
▁pr	-11.4312
makers	-11.4317
▁tackles	-11.4319
▁inmates	-11.432
▁unman	-11.432
▁lit	-11.4324
▁crops	-11.4328
▁sustain	-11.433
▁fielder	-11.433
▁infect	-11.433
▁discs	-11.4332
▁collected	-11.4336
▁downgrade	-11.4336
▁measured	-11.4337
▁comp	-11.4346
delayed	-11.4346
government	-11.4346
test	-11.4348
▁embryo	-11.435
▁citizen	-11.4351
▁payroll	-11.4352
▁finger	-11.4352
zo	-11.4356
▁lauren	-11.4362
▁annually	-11.4364
▁semis	-11.4365
▁preserve	-11.4371
▁conservation	-11.4374
▁teachers	-11.4378
▁boot	-11.4379
▁1200	-11.438
▁dam	-11.4382
phillips	-11.4383
▁wicket	-11.4384
▁attitude	-11.4385
▁buddhist	-11.4385
▁captivity	-11.4385
▁concrete	-11.4385
▁explanation	-11.4385
▁galaxy	-11.4385
▁woolworths	-11.4385
▁plasma	-11.4385
▁monaco	-11.4385
▁enhancements	-11.4385
▁excuse	-11.4385
▁flexible	-11.4385
▁meanwhile	-11.4385
▁cavs	-11.4385
▁rutan	-11.4385
▁relentless	-11.4385
▁sweat	-11.4385
▁snapped	-11.4385
▁romp	-11.4385
▁imaging	-11.4385
▁seville	-11.4385
▁capability	-11.4385
▁banknorth	-11.4386
▁editorial	-11.4387
▁eserver	-11.4387
▁bandit	-11.4387
▁maintenance	-11.4388
▁burt	-11.4388
▁taj	-11.4388
▁yugoslav	-11.4389
▁superstar	-11.439
▁exciting	-11.439
▁memo	-11.4391
▁mach	-11.4392
▁steelmaker	-11.4392
▁truckers	-11.4395
▁pi	-11.4396
▁nt	-11.4397
▁midst	-11.4399
▁poses	-11.4402
▁3-6	-11.4404
▁900	-11.4408
-19	-11.441
▁benson	-11.4413
▁evacuated	-11.4416
▁scandals	-11.4419
used	-11.4422
▁vitali	-11.4424
▁contenders	-11.4425
▁ordering	-11.4427
▁shrinking	-11.4427
list	-11.4429
▁nas	-11.4435
▁fuels	-11.4439
▁libyan	-11.4439
stein	-11.444
▁backers	-11.4443
▁blam	-11.4448
▁skulls	-11.4448
-16	-11.4452
▁dangers	-11.4457
▁artist	-11.4459
▁skins	-11.446
▁mines	-11.4468
▁reversed	-11.4471
▁flawed	-11.4475
elected	-11.4479
▁jol	-11.4482
▁courts	-11.4486
▁javi	-11.4486
▁tightened	-11.4488
rated	-11.4488
▁drinking	-11.4491
▁function	-11.4494
▁spirits	-11.4496
can	-11.4506
eck	-11.4508
▁tackl	-11.4508
flight	-11.4511
▁lean	-11.4512
▁blown	-11.4513
▁nominee	-11.4516
▁spec	-11.4525
fish	-11.4529
▁gr	-11.4531
▁tick	-11.4533
▁efficient	-11.4547
▁devils	-11.4548
▁slap	-11.4548
▁caesars	-11.4549
▁constant	-11.4549
▁horizon	-11.4549
▁maathai	-11.4549
▁outskirts	-11.4549
▁paisley	-11.4549
▁redknapp	-11.4549
▁ambani	-11.4549
▁airwaves	-11.4549
▁basra	-11.4549
▁fidelity	-11.4549
▁salmon	-11.4549
▁lima	-11.455
▁wilkinson	-11.4551
▁laud	-11.4551
▁playboy	-11.4551
▁conte	-11.4554
▁dev	-11.4554
isolated	-11.4555
▁hospitality	-11.4556
2004	-11.4558
▁traveling	-11.4564
ure	-11.457
▁pete	-11.4571
ju	-11.4573
▁coma	-11.4574
je	-11.4574
▁30000	-11.4575
gh	-11.4577
thirds	-11.4578
▁prep	-11.4585
▁bae	-11.4595
▁$29	-11.4599
▁conflicts	-11.4602
▁gases	-11.4604
▁sounded	-11.4611
▁touched	-11.4616
▁hyper	-11.462
▁hiv	-11.462
▁demo	-11.4621
ax	-11.4621
ile	-11.4624
lberg	-11.4624
▁pleased	-11.4627
ji	-11.4628
▁packages	-11.4632
▁shifting	-11.4634
2000	-11.4641
28	-11.4647
▁volunteers	-11.4647
▁1.6	-11.4652
▁younger	-11.4654
▁persist	-11.466
-20	-11.4662
▁attended	-11.4666
gate	-11.4667
▁controll	-11.4669
▁bend	-11.4671
performance	-11.4679
woman	-11.468
cha	-11.468
▁sciences	-11.4681
dicating	-11.4683
▁comet	-11.4684
agent	-11.4685
▁neighbour	-11.4686
▁unite	-11.4688
▁$52	-11.4692
priced	-11.4697
48	-11.4705
▁elements	-11.4707
tass	-11.4708
▁skid	-11.4715
▁biometric	-11.4715
▁compliance	-11.4715
▁constellation	-11.4715
▁kumble	-11.4715
▁murphy	-11.4715
▁stuttgart	-11.4715
▁websphere	-11.4715
▁fleming	-11.4715
▁goodbye	-11.4715
▁hilton	-11.4715
▁hispano	-11.4715
▁mirror	-11.4715
▁cereal	-11.4715
▁alexandria	-11.4716
▁nashville	-11.4716
▁loeb	-11.4716
▁pixar	-11.4716
▁pepper	-11.4716
▁psv	-11.4716
▁fatah	-11.4716
▁ferrero	-11.4716
▁unearth	-11.4718
▁glitches	-11.4719
▁aceh	-11.4719
▁dying	-11.472
▁dug	-11.472
▁stag	-11.4721
▁fein	-11.4721
▁6-5	-11.4724
▁propell	-11.4724
▁killings	-11.4728
nick	-11.4728
uncan	-11.4729
▁organize	-11.4732
nam	-11.4734
▁resumes	-11.4734
▁publication	-11.4735
nell	-11.4736
▁arabic	-11.4739
▁spaceship	-11.474
cska	-11.4744
▁roh	-11.4746
▁functions	-11.4746
▁payout	-11.4747
▁tapped	-11.475
▁uphold	-11.4751
▁immigrants	-11.4754
oil	-11.4757
ington	-11.4757
cut	-11.4762
cite	-11.4763
▁0.3	-11.4766
tt	-11.4766
▁pac	-11.4775
▁hijack	-11.4777
thy	-11.4781
▁lies	-11.4791
▁switching	-11.4793
▁teamed	-11.4799
▁bones	-11.4801
▁04	-11.4802
▁activat	-11.481
▁thrash	-11.482
▁sack	-11.4824
▁les	-11.4825
▁behead	-11.483
▁(4	-11.4831
▁smash	-11.4831
ira	-11.4831
▁83	-11.4832
▁perth	-11.4835
tain	-11.4839
▁directory	-11.4839
▁tightening	-11.4843
ert	-11.4844
23	-11.4845
fall	-11.4846
▁50-	-11.4848
nes	-11.485
▁revers	-11.4853
▁predicting	-11.4855
▁demonstration	-11.486
▁stark	-11.4863
▁ski	-11.487
nov	-11.487
06	-11.4876
▁contested	-11.4882
▁insider	-11.4883
▁2.3	-11.4884
▁fidel	-11.4884
▁jihad	-11.4885
▁jurors	-11.4885
▁nephew	-11.4885
▁strategies	-11.4885
▁villeneuve	-11.4885
▁wachovia	-11.4885
▁mydoom	-11.4885
▁pujols	-11.4885
▁scratch	-11.4885
▁interference	-11.4885
▁transmission	-11.4885
▁telegraph	-11.4885
▁earliest	-11.4885
▁rubble	-11.4885
▁bucs	-11.4885
▁wrestling	-11.4885
▁scoop	-11.4886
▁robson	-11.4886
▁checking	-11.4886
▁devote	-11.4887
▁doug	-11.4887
▁nowhere	-11.4887
▁aluminum	-11.4887
▁summon	-11.4888
▁digest	-11.4888
▁desk	-11.4888
▁kickoff	-11.4889
▁hawk	-11.4889
▁jaw	-11.4889
▁choices	-11.4892
▁heroes	-11.4894
▁insisting	-11.4895
▁5-3	-11.4898
▁$51	-11.4898
▁fray	-11.4898
▁diverted	-11.4898
▁revise	-11.4899
▁thanou	-11.4899
▁trap	-11.4899
▁assassinated	-11.49
▁meta	-11.49
▁indicates	-11.4901
▁outright	-11.4903
▁anyway	-11.4903
▁buses	-11.4907
▁fallout	-11.4909
area	-11.4914
▁informed	-11.4915
sun	-11.4916
▁watches	-11.492
▁explor	-11.4927
▁unleashed	-11.4929
▁lakes	-11.4933
▁lenders	-11.4933
dler	-11.4939
▁cheat	-11.4942
▁methods	-11.4945
▁tan	-11.4959
▁stok	-11.4961
12	-11.4969
ord	-11.4972
▁dry	-11.4979
sti	-11.4985
▁den	-11.4991
▁soup	-11.4993
bra	-11.5001
▁aired	-11.5002
▁$1.2	-11.5002
▁traces	-11.5005
47	-11.5008
▁remind	-11.501
▁senators	-11.5016
hitter	-11.502
▁divisions	-11.502
▁oppose	-11.5022
bert	-11.5022
fighting	-11.5027
▁recommendations	-11.5031
▁tone	-11.5032
▁troubles	-11.5032
▁cigarette	-11.5033
▁edward	-11.5036
▁teens	-11.5038
▁shipment	-11.504
95	-11.5043
ison	-11.5044
▁elephants	-11.5045
tle	-11.5048
▁pad	-11.5049
▁birdies	-11.5054
▁2.7	-11.5055
▁basket	-11.5057
▁coveted	-11.5057
▁epidemic	-11.5057
▁ferdinand	-11.5057
▁intensified	-11.5057
▁leinart	-11.5057
▁portuguese	-11.5057
▁rouge	-11.5057
▁sophomore	-11.5057
▁srichaphan	-11.5057
▁stomach	-11.5057
▁thompson	-11.5057
▁shrimp	-11.5057
▁racism	-11.5057
▁shrek	-11.5058
▁indictment	-11.5058
▁medication	-11.5058
▁gallery	-11.5058
▁jerom	-11.5058
▁automatically	-11.5058
▁infring	-11.5058
▁staple	-11.5058
▁abduction	-11.5059
▁middleware	-11.506
▁albanian	-11.506
rrington	-11.506
▁tame	-11.5062
▁assam	-11.5062
▁clark	-11.5062
▁brighten	-11.5063
▁lady	-11.5065
▁thaw	-11.5065
▁theme	-11.5065
▁tide	-11.5065
▁15000	-11.5067
▁auditors	-11.5068
▁blaze	-11.5077
▁referr	-11.5078
▁cop	-11.5082
▁horn	-11.5083
▁recorder	-11.5084
▁1.2	-11.5084
▁fledg	-11.5088
▁script	-11.5089
▁1-2	-11.509
▁spiral	-11.5091
▁cambodian	-11.5093
▁payrolls	-11.5094
gotten	-11.5096
▁kicker	-11.5109
ski	-11.5112
▁$18	-11.5112
▁putt	-11.5113
▁generated	-11.5116
▁1.4	-11.5117
▁wann	-11.512
▁stressed	-11.5123
▁bout	-11.5125
▁kar	-11.5125
fty	-11.5129
▁mom	-11.5134
gp	-11.5138
▁marc	-11.5144
▁forgotten	-11.515
lese	-11.5153
▁dock	-11.5164
▁km	-11.5166
▁polar	-11.5166
▁prob	-11.5168
▁cafes	-11.5172
price	-11.5173
▁authorize	-11.5176
▁solo	-11.5181
▁detain	-11.5181
▁ole	-11.5185
imo	-11.5199
▁understanding	-11.52
rry	-11.5204
▁gearing	-11.5205
▁pleading	-11.5206
▁op	-11.5206
▁ancestor	-11.5212
▁procedure	-11.5214
▁inventor	-11.522
▁irs	-11.5221
54	-11.5229
▁gunn	-11.5232
▁nod	-11.5232
▁apologise	-11.5233
▁belichick	-11.5233
▁hokies	-11.5233
▁intensify	-11.5233
▁matsushita	-11.5233
▁mcgrady	-11.5233
▁prairie	-11.5233
▁proprietary	-11.5233
▁pursuing	-11.5233
▁declaring	-11.5233
▁dillon	-11.5233
▁thinkpad	-11.5233
▁1997	-11.5233
▁reassure	-11.5233
▁radiation	-11.5233
▁farewell	-11.5233
▁woodward	-11.5233
▁demonstrators	-11.5233
▁lightning	-11.5234
▁munch	-11.5234
▁microchip	-11.5234
▁danish	-11.5234
▁proud	-11.5234
▁marred	-11.5234
▁railway	-11.5234
▁brilliant	-11.5235
▁hernandez	-11.5235
▁repay	-11.5236
▁revival	-11.5236
▁doubtful	-11.5237
▁perez	-11.5237
▁jiang	-11.5239
▁conquer	-11.5239
ksin	-11.524
▁ariz	-11.5242
▁churches	-11.5243
▁unlike	-11.5245
▁$13	-11.5245
untrust	-11.5245
▁pinch	-11.5249
wo	-11.5249
ura	-11.525
liable	-11.5251
link	-11.5251
▁kate	-11.5253
▁defer	-11.5253
▁grilled	-11.5255
▁admitt	-11.5259
▁sz	-11.5261
▁upgraded	-11.5261
▁willis	-11.5263
▁finishes	-11.5265
▁shirt	-11.5265
▁ky	-11.5267
▁russians	-11.5272
ua	-11.5273
▁finalized	-11.5273
▁boxer	-11.5277
hen	-11.5279
▁hears	-11.5283
▁ja	-11.5289
▁serves	-11.529
oma	-11.5292
▁disappear	-11.5292
enove	-11.5294
stock	-11.5296
key	-11.5305
▁spoil	-11.5308
▁tally	-11.5308
borough	-11.5313
▁admit	-11.5314
▁helm	-11.5323
nm	-11.5327
▁taba	-11.5331
agle	-11.5334
▁lin	-11.5336
▁reap	-11.5337
▁tx	-11.5338
▁fc	-11.5345
▁workstations	-11.5345
▁drill	-11.5348
▁gut	-11.535
▁jo	-11.5354
▁beside	-11.5355
▁gro	-11.5362
alone	-11.5366
▁$2.	-11.5367
▁saves	-11.5376
▁indicate	-11.5376
▁types	-11.5376
person	-11.5378
2003	-11.538
▁gb	-11.5382
▁breed	-11.5382
▁pave	-11.5388
▁foe	-11.5389
▁nationalist	-11.5392
▁disruption	-11.5399
▁mario	-11.5401
imated	-11.5401
die	-11.5405
lia	-11.541
▁ballpark	-11.5411
▁disarmament	-11.5411
▁nalbandian	-11.5411
▁otellini	-11.5411
▁vatican	-11.5411
▁jermain	-11.5411
▁podium	-11.5411
▁dominican	-11.5411
▁vieira	-11.5411
▁kurdish	-11.5411
▁functionality	-11.5412
32	-11.5412
▁fading	-11.5412
▁approaching	-11.5413
stedt	-11.5414
▁mason	-11.5415
▁refusal	-11.5416
▁haunt	-11.5416
▁alcs	-11.5418
▁lifestyle	-11.5418
▁mapp	-11.542
▁fury	-11.5421
▁eleven	-11.5421
▁caz	-11.5422
▁reactor	-11.5422
▁icann	-11.5423
▁succession	-11.5425
▁anglo	-11.5426
▁coors	-11.5427
▁max	-11.5428
▁trek	-11.5429
▁broadcaster	-11.5436
nk	-11.5437
▁ditch	-11.5441
▁argued	-11.5442
▁hart	-11.5451
nom	-11.5454
▁wondering	-11.5461
▁gate	-11.5464
▁thigh	-11.5467
▁wmt	-11.5471
nte	-11.5471
▁solicit	-11.5473
▁doomed	-11.5475
▁improves	-11.5476
rais	-11.5479
29	-11.5483
watch	-11.5484
▁weaken	-11.5492
▁dive	-11.5492
▁3.5	-11.5494
51	-11.5495
ceo	-11.5499
▁jazeera	-11.5504
▁sponsored	-11.5506
▁forums	-11.5515
▁mock	-11.5521
stitutional	-11.5524
▁sharma	-11.5526
▁chest	-11.5526
ose	-11.553
▁hate	-11.5531
▁dj	-11.5532
74	-11.5532
▁bubble	-11.5535
reach	-11.5537
▁12000	-11.5538
▁brush	-11.5542
▁printing	-11.5545
▁studying	-11.5553
panel	-11.5555
hon	-11.5561
▁burns	-11.5563
▁shrug	-11.5569
▁marian	-11.5574
neck	-11.5575
▁scar	-11.5582
▁$85	-11.5586
▁stretched	-11.5587
rov	-11.5592
▁consensus	-11.5593
▁curfew	-11.5593
▁enemies	-11.5593
▁maneuver	-11.5593
▁palestine	-11.5593
▁quincy	-11.5593
▁stuart	-11.5593
▁superior	-11.5593
▁thorpe	-11.5593
▁tungsten	-11.5593
▁veerappan	-11.5593
▁2004-05	-11.5593
▁mohammad	-11.5593
▁keegan	-11.5593
▁revolt	-11.5593
▁lazio	-11.5593
▁telecast	-11.5593
xinhuanet	-11.5593
▁tesco	-11.5593
▁tyco	-11.5593
▁pivot	-11.5594
▁keane	-11.5594
▁bowden	-11.5594
▁tenure	-11.5594
▁bread	-11.5594
▁naval	-11.5594
▁finley	-11.5595
▁unhappy	-11.5595
▁punishment	-11.5595
▁recount	-11.5596
▁classified	-11.5596
▁reluctant	-11.5597
▁safeway	-11.5597
▁truly	-11.56
▁remembered	-11.56
▁bru	-11.5601
▁seller	-11.5603
▁primari	-11.5605
▁reviv	-11.5606
▁compare	-11.5607
▁nano	-11.5608
dom	-11.5617
▁subscriber	-11.5619
▁bosses	-11.5624
▁henri	-11.5625
▁bike	-11.5629
saving	-11.5629
▁exposed	-11.5631
▁28-	-11.5633
enson	-11.5634
42	-11.5634
ight	-11.5642
▁responding	-11.5644
▁auditor	-11.5646
▁outlets	-11.5654
▁str	-11.566
tx	-11.5669
▁charm	-11.5669
nnn	-11.567
▁lankan	-11.5675
▁padr	-11.568
▁discounts	-11.5682
-24	-11.5682
▁finances	-11.5685
▁critically	-11.5687
mayer	-11.5691
▁snaps	-11.5694
▁criminals	-11.5694
▁225	-11.5697
▁eliminat	-11.5698
▁bounc	-11.5702
▁levi	-11.5702
▁failures	-11.5704
metre	-11.5705
arch	-11.5707
▁$23	-11.571
▁oppos	-11.5711
▁measur	-11.5711
▁outages	-11.5721
ach	-11.5721
▁hurl	-11.5722
book	-11.5727
itive	-11.573
▁runners	-11.5736
itz	-11.5737
mark	-11.574
▁provision	-11.5742
china	-11.5743
▁outpost	-11.5746
bc	-11.5752
▁135	-11.5753
▁automat	-11.5753
▁regulate	-11.5757
▁touted	-11.5757
▁ruin	-11.5761
▁dram	-11.5761
▁swede	-11.5763
▁nest	-11.5766
graph	-11.5766
▁counterparts	-11.5769
mir	-11.5774
goldwyn	-11.5778
▁adelphia	-11.5778
▁adwords	-11.5778
▁cabrera	-11.5778
▁cinema	-11.5778
▁conversation	-11.5778
▁drastic	-11.5778
▁graduate	-11.5778
▁ordinary	-11.5778
▁predecessor	-11.5778
▁triangle	-11.5778
▁babies	-11.5778
▁churn	-11.5778
▁intact	-11.5778
▁colombo	-11.5778
▁oxford	-11.5778
▁patterson	-11.5778
▁stump	-11.5778
▁reggie	-11.5778
▁ajax	-11.5778
▁reference	-11.5778
▁width	-11.5778
▁smell	-11.5778
▁admission	-11.5779
▁gauge	-11.5779
▁jammu	-11.5779
▁bunch	-11.5779
▁dept	-11.5779
▁hideout	-11.578
▁linksys	-11.578
▁qualifiers	-11.5782
▁gogh	-11.5782
▁rematch	-11.5784
▁wakefield	-11.5784
▁joke	-11.5785
▁colour	-11.5785
▁interfax	-11.5792
▁cache	-11.5793
▁cellphones	-11.5799
nanometer	-11.5799
▁whatever	-11.5799
▁shore	-11.58
▁advanc	-11.58
▁whistle	-11.5801
▁wipe	-11.5801
▁olympia	-11.5802
hd	-11.5803
name	-11.5807
▁sin	-11.5816
▁consequences	-11.5818
▁advertisers	-11.5818
▁footballer	-11.5822
▁clo	-11.5823
▁denounce	-11.5828
cent	-11.5831
▁shakes	-11.5831
▁secondary	-11.5834
▁rex	-11.5842
▁joey	-11.5843
▁favored	-11.5847
▁dominat	-11.585
▁brave	-11.5852
▁karl	-11.5854
yn	-11.5855
▁2001.	-11.5856
vian	-11.5857
nan	-11.5859
▁suspensions	-11.586
▁94	-11.5866
▁$1.8	-11.5867
▁distribut	-11.5884
▁boo	-11.5887
rm	-11.589
▁shortages	-11.5892
▁somali	-11.5893
▁builder	-11.5894
▁happens	-11.5894
▁hungr	-11.5894
oning	-11.5898
ox	-11.5899
▁falter	-11.5904
face	-11.5911
▁breathing	-11.5915
opening	-11.5915
▁rig	-11.5916
percent	-11.5918
▁plummet	-11.5928
doping	-11.5929
▁(10	-11.5937
▁seiz	-11.5938
▁wraps	-11.5942
disput	-11.5944
tin	-11.5951
ella	-11.5954
sis	-11.5954
▁dur	-11.5962
▁avoided	-11.5962
▁bonus	-11.5965
▁acclaim	-11.5967
▁buckeyes	-11.5967
▁definitely	-11.5967
▁entrance	-11.5967
▁furniture	-11.5967
▁gardner	-11.5967
▁gutierrez	-11.5967
▁idaho	-11.5967
▁inflict	-11.5967
▁jeddah	-11.5967
▁minimum	-11.5967
▁molson	-11.5967
▁riyadh	-11.5967
▁dinner	-11.5967
▁mittal	-11.5967
▁#821	-11.5967
▁observatory	-11.5967
▁calpers	-11.5967
▁embedd	-11.5967
▁motorcycle	-11.5967
▁verify	-11.5967
▁lavish	-11.5967
▁bats	-11.5968
▁quell	-11.5968
▁$10.3	-11.5968
▁silva	-11.5968
▁fragile	-11.5968
▁bogu	-11.5968
▁suburban	-11.5969
spite	-11.5969
▁confirmation	-11.5969
▁guru	-11.5969
▁unauthori	-11.597
▁belief	-11.597
▁tendon	-11.5971
▁waive	-11.5971
▁musicians	-11.5971
▁completion	-11.5971
▁dismissal	-11.5971
▁saban	-11.5972
▁mill	-11.5974
▁topple	-11.5974
▁rite	-11.5975
▁neighbors	-11.5976
▁rallying	-11.5977
rmo	-11.5979
▁void	-11.5981
▁discipline	-11.5982
▁interviews	-11.5984
standing	-11.5987
▁designs	-11.5987
▁makeover	-11.5991
▁ignored	-11.5994
center	-11.5994
▁techs	-11.5997
▁faulty	-11.5998
▁runoff	-11.6001
▁deposit	-11.6003
▁objections	-11.6004
▁sessions	-11.6005
▁6:	-11.6005
▁boots	-11.6007
▁foiled	-11.6008
▁turk	-11.601
▁lehmann	-11.6012
▁cu	-11.602
asia	-11.6023
▁tee	-11.6029
▁rider	-11.6029
▁gran	-11.6031
▁designate	-11.6031
▁sever	-11.6044
▁pats	-11.6045
▁tripled	-11.6047
▁mountains	-11.605
▁jak	-11.605
▁activate	-11.6052
soft	-11.606
▁trims	-11.6061
▁loaded	-11.6063
▁exception	-11.6067
▁rouse	-11.6068
▁bloggers	-11.6069
ible	-11.607
▁minn	-11.6074
pre	-11.6079
ggy	-11.6086
▁$1.9	-11.6097
▁sponsor	-11.6104
ado	-11.6107
ble	-11.6107
▁bother	-11.6109
onics	-11.6112
och	-11.6112
met	-11.6119
brien	-11.612
▁lately	-11.612
limited	-11.6121
management	-11.6121
don	-11.6124
empt	-11.6127
▁villages	-11.6129
india	-11.6136
gged	-11.6138
26	-11.6141
mmc	-11.6142
▁terminate	-11.6144
nys	-11.6145
▁obvious	-11.6146
▁40-	-11.6147
▁prestig	-11.6149
▁tu	-11.615
▁bargains	-11.6156
▁suburb	-11.6158
▁incentive	-11.6158
▁inspection	-11.6158
▁bizarre	-11.6159
▁garciaparra	-11.6159
▁hemisphere	-11.6159
▁millennium	-11.6159
▁mysql	-11.6159
▁obesity	-11.6159
▁plutonium	-11.6159
▁stabilize	-11.6159
▁technological	-11.6159
▁xstrata	-11.6159
▁pummel	-11.6159
▁selig	-11.6159
▁stranded	-11.6159
▁802.11	-11.6159
▁gillette	-11.6159
▁borland	-11.616
▁pardon	-11.616
▁nasty	-11.616
▁pennant	-11.616
▁pepsico	-11.616
5)	-11.616
andro	-11.6161
▁cry	-11.6161
▁spinning	-11.6161
▁funny	-11.6161
▁consistent	-11.6162
▁keynote	-11.6162
▁airlift	-11.6162
▁archive	-11.6163
fc	-11.6163
▁eligible	-11.6163
▁presentation	-11.6164
▁conferencing	-11.6164
▁sims	-11.6167
▁chess	-11.6167
▁richardson	-11.6167
▁dating	-11.6171
▁7.7	-11.6172
▁wings	-11.6177
ano	-11.6181
▁cooperate	-11.6183
▁byrd	-11.6188
▁soul	-11.6192
▁scatter	-11.6193
▁roaming	-11.6194
▁normally	-11.6194
▁abused	-11.6194
▁attached	-11.6197
▁400-	-11.6199
▁pun	-11.6199
▁liberia	-11.6199
▁pipelines	-11.6201
▁solved	-11.6202
▁characters	-11.6204
▁bra	-11.6205
-12	-11.6205
▁heal	-11.6207
▁forecasters	-11.621
▁scenes	-11.6212
▁dim	-11.6219
▁stored	-11.622
▁3.7	-11.6222
▁walks	-11.6223
▁massu	-11.6224
▁merca	-11.6225
▁contractors	-11.6226
▁trends	-11.6232
▁rico	-11.6233
rand	-11.6233
▁hitter	-11.6234
▁deserter	-11.6237
▁perk	-11.6237
▁afford	-11.6238
ain	-11.6251
▁kosta	-11.6259
▁hacking	-11.6265
▁avoiding	-11.6267
ouf	-11.6271
▁$3.	-11.6273
▁4500	-11.6274
▁ci	-11.6277
▁poisoning	-11.6277
ierre	-11.628
▁mergers	-11.6283
eng	-11.6286
▁laura	-11.629
▁greeting	-11.6291
▁trains	-11.6292
800	-11.6294
▁koreans	-11.6296
▁rooms	-11.63
▁relax	-11.6301
mc	-11.6306
christ	-11.6317
earlier	-11.6317
wicket	-11.6317
▁chains	-11.6319
▁contacts	-11.6328
▁panic	-11.6338
▁refuge	-11.6342
▁1600	-11.6344
▁nab	-11.6349
▁wil	-11.6351
▁choos	-11.6351
▁carly	-11.6352
▁nationals	-11.6353
▁extinct	-11.6354
nik	-11.6354
▁judicia	-11.6355
▁absorb	-11.6355
▁beautiful	-11.6355
▁bernabeu	-11.6355
▁bhopal	-11.6355
▁celebrity	-11.6355
▁clement	-11.6355
▁disengagement	-11.6355
▁fiction	-11.6355
▁grokster	-11.6355
▁harbor	-11.6355
▁heathrow	-11.6355
▁hormone	-11.6355
▁impasse	-11.6355
▁incursion	-11.6355
▁kpmg	-11.6355
▁marriott	-11.6355
▁mcgrath	-11.6355
▁premature	-11.6355
▁reconsider	-11.6355
▁tissue	-11.6355
▁vessel	-11.6355
▁cultural	-11.6355
▁elbaradei	-11.6355
▁grievance	-11.6355
▁residence	-11.6355
▁christophe	-11.6356
▁tumor	-11.6356
▁scuffle	-11.6356
▁thump	-11.6356
▁bullet	-11.6356
▁everybody	-11.6356
▁colonial	-11.6356
▁sponsorship	-11.6356
▁victorious	-11.6356
▁seagate	-11.6356
▁1994	-11.6356
▁nottingham	-11.6357
▁interception	-11.6357
▁shelter	-11.6357
▁flyby	-11.6358
▁$1.25	-11.6359
isation	-11.6359
▁sandisk	-11.636
▁passage	-11.636
▁indeed	-11.6361
▁ronaldo	-11.6362
▁lawmaker	-11.6365
▁shaun	-11.6365
▁fever	-11.6366
▁brock	-11.6366
▁operative	-11.6368
▁conservationist	-11.6369
▁70000	-11.6369
▁ecb	-11.637
▁protesting	-11.6375
▁jess	-11.6378
▁tricks	-11.6381
▁curbs	-11.6385
▁finn	-11.639
wight	-11.6392
▁musical	-11.6393
▁guaranteed	-11.6397
▁kati	-11.6407
▁consoles	-11.6408
ucci	-11.6414
▁alleges	-11.6416
▁lifetime	-11.6417
450	-11.6418
▁downplay	-11.642
▁cla	-11.6422
▁krist	-11.6425
▁drilling	-11.6426
ual	-11.6431
▁doughnuts	-11.6433
▁slot	-11.6434
▁lap	-11.6434
▁noon	-11.6436
idge	-11.644
▁homecoming	-11.6446
▁practical	-11.6448
bell	-11.645
iah	-11.6455
▁lp	-11.6459
▁stated	-11.646
ken	-11.6466
rim	-11.6467
▁listening	-11.6476
▁grad	-11.6481
▁finalist	-11.649
lar	-11.6498
▁restor	-11.6502
ata	-11.6509
▁sharks	-11.6517
▁temper	-11.6526
nations	-11.6526
▁jumper	-11.6527
▁200-	-11.6528
mrk	-11.653
▁outrage	-11.6534
▁franco	-11.6537
▁crossed	-11.6541
▁motorsports	-11.6542
▁succeeded	-11.6544
▁developments	-11.6548
▁regrets	-11.6549
eta	-11.6552
▁cats	-11.6552
▁behalf	-11.6553
▁achilles	-11.6555
▁brisbane	-11.6555
▁creek	-11.6555
▁debris	-11.6555
▁elusive	-11.6555
▁grumman	-11.6555
▁macintosh	-11.6555
▁marijuana	-11.6555
▁mcdowell	-11.6555
▁sihanouk	-11.6555
▁zvonareva	-11.6555
▁belfast	-11.6555
▁jacob	-11.6555
▁swirl	-11.6555
▁warehouse	-11.6555
▁geico	-11.6555
▁surcharge	-11.6555
▁bahamas	-11.6555
▁smack	-11.6556
▁roadmap	-11.6556
▁expedition	-11.6556
▁lynn	-11.6556
▁geographic	-11.6556
▁opposite	-11.6556
▁fanning	-11.6556
▁monarch	-11.6556
▁ghost	-11.6556
▁chiron	-11.6556
▁carmel	-11.6557
▁propel	-11.6557
▁financier	-11.6557
▁rollout	-11.656
ali	-11.656
▁airplane	-11.656
▁nerve	-11.656
▁performances	-11.6561
▁abortion	-11.6561
▁chamber	-11.6562
▁regret	-11.6562
▁roof	-11.6563
▁tempt	-11.6563
▁robertson	-11.6563
▁consideration	-11.6564
▁grind	-11.6564
▁slaughter	-11.6564
▁aston	-11.6565
▁spies	-11.6566
▁colony	-11.6566
▁shade	-11.6567
▁$3.4	-11.6568
▁nathan	-11.6568
▁poorest	-11.6569
▁zen	-11.6569
▁forests	-11.6571
▁baton	-11.6573
▁inq	-11.6575
dine	-11.6575
▁socialist	-11.6576
▁anonymous	-11.6576
▁tin	-11.6576
▁brake	-11.658
▁2002.	-11.6581
▁spying	-11.6583
▁peers	-11.6585
▁pipe	-11.6586
gy	-11.6586
▁1.9	-11.6588
▁iii	-11.6592
▁des	-11.6596
nas	-11.6601
yo	-11.6604
ocal	-11.6604
▁shaken	-11.6608
▁$1.4	-11.661
ied	-11.6611
▁owes	-11.6615
▁bang	-11.6621
▁frenchman	-11.6621
▁sas	-11.6623
▁listings	-11.6627
▁oa	-11.6632
▁prais	-11.6632
▁cer	-11.6633
▁somalia	-11.6635
▁50000	-11.6635
▁nudge	-11.6655
▁inject	-11.6658
▁je	-11.666
▁homeless	-11.6663
fired	-11.6665
cube	-11.6665
▁diseases	-11.6667
lim	-11.6671
▁110	-11.6672
▁searched	-11.6674
▁cheered	-11.6676
▁corrected	-11.668
▁restored	-11.6683
▁swu	-11.669
▁keeper	-11.6691
▁counsel	-11.6692
▁resum	-11.6693
▁intra	-11.6697
▁californian	-11.6713
▁speedy	-11.6715
peoplesoft	-11.6721
▁midwest	-11.6732
▁doc	-11.6734
▁topics	-11.6739
▁ethiopia	-11.6744
▁mental	-11.6746
▁advisor	-11.6747
▁adventure	-11.6748
▁sacrifice	-11.6753
▁shouldn	-11.6754
▁prey	-11.6758
▁autonomy	-11.6759
▁bulldogs	-11.6759
▁buttiglione	-11.6759
▁commodities	-11.6759
▁dilemma	-11.6759
▁ecuador	-11.6759
▁missteps	-11.6759
▁physics	-11.6759
▁rhetoric	-11.6759
▁rhode	-11.6759
▁utilities	-11.6759
▁pinsent	-11.6759
▁rumble	-11.6759
▁thirty	-11.6759
▁underdog	-11.6759
▁sleek	-11.6759
▁misery	-11.6759
▁mitchell	-11.6759
▁denmark	-11.676
▁wildcats	-11.676
▁breeze	-11.676
▁optimization	-11.676
▁randall	-11.676
▁windfall	-11.676
▁browsing	-11.676
▁blogging	-11.676
▁reconstruction	-11.676
▁strife	-11.676
▁citizenship	-11.676
▁wgc	-11.676
▁panda	-11.6761
▁archrival	-11.6761
ching	-11.6762
▁greenberg	-11.6762
▁zafi	-11.6762
▁ayat	-11.6763
▁geoff	-11.6764
▁ibook	-11.6765
▁brisk	-11.6765
▁morrison	-11.6765
▁yang	-11.6765
▁netware	-11.6766
▁beltre	-11.6766
▁qualified	-11.6766
▁ferry	-11.6766
▁incredible	-11.6768
▁workplace	-11.6769
▁element	-11.677
▁kerr	-11.677
▁concession	-11.6771
night	-11.6772
▁stellar	-11.6772
▁spray	-11.6774
▁teacher	-11.6777
lb	-11.6778
▁eagerly	-11.678
▁faction	-11.678
▁rec	-11.6782
▁ord	-11.6786
▁worrying	-11.6791
▁broadcasters	-11.6792
▁rattled	-11.6792
▁couples	-11.6792
▁desperately	-11.6793
▁downgraded	-11.6793
▁bottle	-11.6796
▁tempe	-11.68
▁embryos	-11.6803
▁invad	-11.6806
▁aapl	-11.681
▁bloomberg	-11.681
▁flurr	-11.6814
lier	-11.6819
rid	-11.6822
ink	-11.6823
▁delighted	-11.6831
ora	-11.6835
ide	-11.6843
▁donors	-11.6845
▁anfield	-11.685
▁debts	-11.6856
onzo	-11.6861
▁poisoned	-11.6864
▁bags	-11.6866
▁lovers	-11.6882
▁circle	-11.6882
▁val	-11.6888
imposed	-11.6893
▁quant	-11.6898
▁maximu	-11.6899
▁teenagers	-11.6899
gue	-11.6902
▁maxim	-11.6906
▁suggestions	-11.6908
▁soap	-11.6911
lot	-11.6914
▁mobil	-11.6916
▁uneas	-11.6917
▁bowler	-11.6922
▁intervene	-11.6925
▁prevented	-11.6927
enhanc	-11.6928
mouth	-11.6928
▁sway	-11.6929
▁values	-11.6929
three	-11.693
income	-11.693
prize	-11.693
arm	-11.6935
▁attending	-11.6935
plus	-11.6936
▁relat	-11.6936
with	-11.6938
bomb	-11.6941
▁scrapp	-11.6948
▁risky	-11.6952
▁alternatives	-11.6955
▁schu	-11.6955
▁differ	-11.6964
▁lid	-11.6965
fixing	-11.6965
▁hatch	-11.6967
▁bath	-11.6967
shire	-11.6968
palmolive	-11.6968
▁eindhoven	-11.6968
▁frenzy	-11.6968
▁glasgow	-11.6968
▁litigation	-11.6968
▁nebraska	-11.6968
▁rutgers	-11.6968
▁shinawatra	-11.6968
▁shuffle	-11.6968
▁sukarnoputri	-11.6968
▁territories	-11.6968
▁waziristan	-11.6968
▁welfare	-11.6968
▁flexibility	-11.6968
▁himalaya	-11.6968
▁1992	-11.6968
▁ratification	-11.6968
▁girlfriend	-11.6968
▁dioxide	-11.6968
ollah	-11.6968
▁navigation	-11.6968
▁peruvian	-11.6968
▁$43	-11.6968
▁maiden	-11.6968
▁heinz	-11.6969
▁morocco	-11.6969
▁pci	-11.6969
▁richmond	-11.6969
▁hutchison	-11.697
▁inspections	-11.697
▁bandwidth	-11.6971
▁devastation	-11.6972
▁nextwave	-11.6974
▁7-3	-11.698
▁ratified	-11.6981
▁wifi	-11.6982
▁elephant	-11.6983
▁amounts	-11.6985
▁participants	-11.6987
▁pray	-11.6989
▁mia	-11.6991
▁fie	-11.6993
▁monty	-11.6996
▁photographer	-11.6997
300	-11.7002
▁cheers	-11.7007
▁pickup	-11.7007
▁penny	-11.7007
ila	-11.7011
▁peaks	-11.7014
▁tuck	-11.7015
ummer	-11.7016
uala	-11.7026
▁assert	-11.703
mph	-11.703
▁pur	-11.7033
▁complained	-11.7038
▁2000.	-11.7044
▁pier	-11.7047
▁clusters	-11.7048
▁mag	-11.705
fr	-11.7055
▁endors	-11.706
dec	-11.7061
▁$150	-11.7069
▁caller	-11.7073
open	-11.7075
▁97	-11.7078
▁dealer	-11.7083
▁bolt	-11.7085
▁matters	-11.7085
▁amit	-11.7094
healthdaynews	-11.7095
▁suppliers	-11.7096
▁$38	-11.7102
▁baron	-11.7103
▁smartphones	-11.7106
pot	-11.7106
▁acts	-11.7112
▁doubl	-11.7115
▁likes	-11.7117
▁brew	-11.7117
ele	-11.7117
▁sham	-11.7119
▁popul	-11.712
▁founded	-11.712
▁exploits	-11.7127
▁victoria	-11.7128
▁toss	-11.7129
▁mention	-11.7132
ancy	-11.7134
quality	-11.7135
▁losers	-11.7136
aries	-11.714
dou	-11.7141
system	-11.7142
▁hum	-11.7143
▁starters	-11.7146
▁stockpiles	-11.7148
▁households	-11.7151
▁vera	-11.7152
count	-11.7156
▁evolve	-11.7162
online	-11.717
▁disma	-11.7171
▁slashe	-11.7172
bid	-11.7176
▁ellis	-11.7178
▁1100	-11.7179
▁redeploy	-11.718
▁autumn	-11.7181
▁beverage	-11.7181
▁edmonton	-11.7181
▁gannon	-11.7181
▁lahore	-11.7181
▁liquor	-11.7181
▁module	-11.7181
▁mogul	-11.7181
▁motogp	-11.7181
▁shevchenko	-11.7181
▁talladega	-11.7181
▁vacuum	-11.7181
▁bosox	-11.7181
▁jungle	-11.7181
▁belgrade	-11.7181
▁balloon	-11.7181
▁fireworks	-11.7181
▁apache	-11.7181
unconstitutional	-11.7181
▁imperial	-11.7181
▁peek	-11.7181
▁lieber	-11.7181
▁safeguard	-11.7181
▁jackpot	-11.7181
▁melvin	-11.7181
▁entertain	-11.7181
▁discrimination	-11.7181
▁contrast	-11.7182
▁marino	-11.7182
▁medley	-11.7182
▁elimination	-11.7182
▁methane	-11.7182
▁taser	-11.7182
▁induce	-11.7182
▁booked	-11.7183
▁bovina	-11.7183
▁injunction	-11.7183
▁plagu	-11.7183
▁anastasi	-11.7183
▁nhlpa	-11.7185
▁subway	-11.7185
▁attractive	-11.7186
▁intensive	-11.7186
▁worldcom	-11.7188
▁leeds	-11.7188
▁timetable	-11.7188
▁outer	-11.719
▁fitting	-11.719
▁ark	-11.7191
erson	-11.7191
▁linda	-11.7191
personic	-11.7193
▁complicated	-11.7193
▁thumb	-11.7199
▁defuse	-11.7199
▁holdout	-11.7199
▁formation	-11.7205
▁heightened	-11.7207
▁till	-11.7207
▁7.0	-11.7209
▁aere	-11.7213
gar	-11.7214
▁meal	-11.7214
gae	-11.7214
▁gaz	-11.7216
▁innovati	-11.7217
▁dunn	-11.7219
▁dad	-11.7223
▁pressures	-11.7225
gard	-11.7229
▁dates	-11.7245
▁beware	-11.7253
cic	-11.7255
▁heights	-11.7261
▁cheating	-11.7261
▁rid	-11.7266
▁pe	-11.7272
bble	-11.7275
ram	-11.7279
ended	-11.7279
▁wise	-11.728
chan	-11.7286
ugh	-11.729
▁hung	-11.729
▁sara	-11.7296
▁withhold	-11.7299
rin	-11.7306
▁quakes	-11.7307
moni	-11.731
ean	-11.7311
nor	-11.7314
ants	-11.7317
▁flows	-11.7317
▁spreads	-11.732
▁pdas	-11.7326
▁appliances	-11.733
▁pitchers	-11.7338
▁eggs	-11.7339
▁rowing	-11.7339
zer	-11.734
▁explains	-11.7341
▁$22	-11.7354
music	-11.7356
▁indoors	-11.7357
▁def	-11.7357
october	-11.736
pakistan	-11.736
▁swell	-11.736
▁sonics	-11.7361
iraqi	-11.7361
▁expires	-11.7361
rv	-11.7364
19	-11.7371
▁riots	-11.7377
▁sentences	-11.7378
▁governors	-11.7379
▁endur	-11.7382
wan	-11.7383
▁evans	-11.7384
▁execute	-11.7387
▁tube	-11.7391
dding	-11.7394
▁tab	-11.7395
▁disagree	-11.7397
▁catalog	-11.7398
prnewswire	-11.7398
▁clarett	-11.7398
▁conversion	-11.7398
▁dakota	-11.7398
▁demolition	-11.7398
▁disastrous	-11.7398
▁elizabeth	-11.7398
▁extensive	-11.7398
▁hilfiger	-11.7398
▁imprisoned	-11.7398
▁minaya	-11.7398
▁nowitzki	-11.7398
▁rogge	-11.7398
▁weightlifter	-11.7398
▁glaus	-11.7398
▁spacewalk	-11.7398
▁zdnet	-11.7398
▁adultery	-11.7398
▁galactic	-11.7398
▁fabric	-11.7398
▁compatriot	-11.7398
▁wolfsburg	-11.7398
▁communicator	-11.7398
▁mikh	-11.7398
▁embark	-11.7398
▁inauguration	-11.7398
▁curtain	-11.7398
▁drunken	-11.7399
▁defraud	-11.7399
▁1991	-11.7399
▁liquidation	-11.74
▁somewhat	-11.74
▁slides	-11.74
▁moham	-11.7404
▁mourners	-11.7404
▁potent	-11.7404
▁profitability	-11.7408
▁inflated	-11.741
▁located	-11.741
▁98	-11.7411
▁oak	-11.7411
▁forever	-11.7411
▁turnout	-11.7412
▁yum	-11.7413
▁domini	-11.7414
▁exam	-11.7418
▁millionaire	-11.742
▁headache	-11.742
▁canadians	-11.7421
▁stride	-11.7422
▁acknowledge	-11.7423
pay	-11.7423
▁metals	-11.7424
▁115	-11.7424
▁refund	-11.7425
▁noise	-11.7427
▁celebrations	-11.7427
▁ouster	-11.7428
▁opposes	-11.7431
roy	-11.7434
▁quarterfinal	-11.7437
▁heats	-11.7439
▁contained	-11.7439
▁severely	-11.744
▁hospitaliz	-11.7441
▁employer	-11.7442
▁cue	-11.7443
▁pil	-11.7446
▁exclud	-11.7448
capabl	-11.745
lisa	-11.745
▁excel	-11.7451
show	-11.7459
▁ideal	-11.7461
▁rumours	-11.7462
▁hijacked	-11.7467
attered	-11.747
pan	-11.7474
▁flags	-11.7478
looking	-11.7478
▁cruis	-11.7479
▁dish	-11.7481
▁skill	-11.7482
▁preferr	-11.7484
▁foray	-11.7484
▁licensed	-11.7488
▁rattle	-11.7489
▁ape	-11.7492
▁shia	-11.75
▁feeds	-11.7502
▁vie	-11.7503
roughly	-11.7504
▁93	-11.7505
▁lawn	-11.7513
hern	-11.7513
▁quota	-11.7529
uick	-11.753
▁collaborate	-11.7534
iz	-11.7536
▁bells	-11.7537
are	-11.7538
▁35-	-11.7543
loved	-11.7544
▁historical	-11.755
▁87	-11.7551
uous	-11.7556
▁towers	-11.7556
▁boasts	-11.756
▁lip	-11.7561
-11	-11.7561
▁utter	-11.7562
▁loft	-11.7563
2.5	-11.7567
▁administrators	-11.7569
▁multimillion	-11.757
bby	-11.7573
unt	-11.7573
▁firmer	-11.7573
▁kashmiri	-11.7573
▁cope	-11.7575
lmer	-11.7576
paper	-11.7579
morgan	-11.758
enabled	-11.7581
palestinian	-11.7582
morning	-11.7582
aapl	-11.7583
ette	-11.7585
=1	-11.759
▁cling	-11.7596
▁sage	-11.7596
▁bon	-11.7596
▁ros	-11.7598
cker	-11.7602
driven	-11.7603
▁skate	-11.7612
llery	-11.7614
▁juice	-11.7618
ties	-11.7618
▁procure	-11.7618
▁construct	-11.7619
▁copernic	-11.762
▁coventry	-11.762
▁credibility	-11.762
▁culpepper	-11.762
▁havoc	-11.762
▁hispanic	-11.762
▁jeopardy	-11.762
▁metropoli	-11.762
▁portrait	-11.762
▁scrambling	-11.762
▁sophos	-11.762
▁stereo	-11.762
▁swoop	-11.762
▁umpire	-11.762
▁undecided	-11.762
▁diebold	-11.762
▁stelco	-11.762
▁bleak	-11.762
▁ignoring	-11.762
▁renteria	-11.762
▁trounce	-11.762
▁marxis	-11.762
▁childhood	-11.762
▁kilometers	-11.762
▁drain	-11.7621
▁jefferson	-11.7621
▁niche	-11.7621
▁deportation	-11.7621
▁hinder	-11.7622
▁netsky	-11.7623
▁norton	-11.7623
▁anymore	-11.7624
▁televised	-11.7624
▁scout	-11.7624
▁quitting	-11.7624
sex	-11.7625
▁unarmed	-11.7625
▁confidential	-11.7625
▁rebellion	-11.7625
▁ameri	-11.7625
▁betti	-11.7625
▁determination	-11.7625
▁trash	-11.7626
▁73	-11.7626
▁batman	-11.7627
▁steadily	-11.7627
▁edgar	-11.7627
▁steals	-11.7628
▁directv	-11.7629
▁associate	-11.7629
player	-11.7629
▁uproot	-11.763
▁replay	-11.7632
▁rash	-11.7632
▁malls	-11.7633
▁bagle	-11.7633
▁bison	-11.7633
▁boil	-11.7634
▁rear	-11.7634
▁fracture	-11.7636
▁topic	-11.7637
▁candy	-11.7638
▁deserved	-11.764
▁trusted	-11.7644
▁200000	-11.7644
▁spinner	-11.7645
▁tricky	-11.7646
▁assurance	-11.7647
▁pure	-11.7647
▁paralympic	-11.7649
segun	-11.765
▁installation	-11.765
uit	-11.7655
▁raf	-11.7659
▁sheet	-11.7659
▁accelerated	-11.7659
▁saver	-11.7663
▁purpose	-11.7664
▁mmc	-11.7669
▁102	-11.767
▁105	-11.767
▁crippled	-11.7671
▁habitat	-11.7671
▁usher	-11.7671
▁stale	-11.768
form	-11.7692
quest	-11.7695
weight	-11.7696
▁dear	-11.77
▁32-	-11.7701
▁seekers	-11.7705
▁particles	-11.7705
eur	-11.7711
cor	-11.7714
▁notch	-11.7719
▁surviv	-11.7719
▁kil	-11.7723
epp	-11.7725
▁surfaced	-11.7725
even	-11.7726
▁27-	-11.7728
▁environments	-11.7728
▁103	-11.773
rox	-11.7731
ik	-11.7738
▁patriot	-11.7741
▁span	-11.7746
talk	-11.7746
xa	-11.7746
prevention	-11.7747
▁tds	-11.7749
league	-11.775
46	-11.7751
▁newman	-11.7759
▁divers	-11.7763
▁stevens	-11.7766
▁shap	-11.7768
oise	-11.7768
▁nationally	-11.7771
▁fig	-11.7777
▁pubs	-11.7787
▁inner	-11.7792
▁hog	-11.7794
▁$700	-11.7794
▁reti	-11.7794
▁underscor	-11.78
▁predictions	-11.78
▁7:	-11.7804
bridge	-11.7808
processor	-11.7808
55	-11.7811
▁airliners	-11.7812
▁spar	-11.7815
ographic	-11.7821
goal	-11.7827
ians	-11.7829
▁realize	-11.7832
▁ye	-11.7833
▁guille	-11.7837
▁roofs	-11.7841
sky	-11.7842
▁treasure	-11.7844
▁corrupt	-11.7846
▁diagnos	-11.7846
lihood	-11.7847
▁blank	-11.7847
▁wolf	-11.7847
enrnq	-11.7847
▁aeronautic	-11.7847
▁bhutto	-11.7847
▁bucharest	-11.7847
▁buckingham	-11.7847
▁canberra	-11.7847
▁catastrophe	-11.7847
▁chennai	-11.7847
▁coliseum	-11.7847
▁compuware	-11.7847
▁credentials	-11.7847
▁fantasy	-11.7847
▁intelligent	-11.7847
▁khatami	-11.7847
▁legitimate	-11.7847
▁obasanjo	-11.7847
▁onslaught	-11.7847
▁penguin	-11.7847
▁reprieve	-11.7847
▁samuel	-11.7847
▁wolverines	-11.7847
▁champagne	-11.7847
▁nielsen	-11.7847
▁oswalt	-11.7847
▁salaries	-11.7847
▁tarnish	-11.7847
▁rebuke	-11.7847
▁spider	-11.7847
▁accelerating	-11.7848
▁iverson	-11.7848
▁furcal	-11.7848
▁traction	-11.7848
▁severance	-11.7848
▁torrential	-11.7848
▁megson	-11.7848
▁anthem	-11.7848
▁wentworth	-11.7848
▁glad	-11.7848
▁middleweight	-11.7849
▁skeptical	-11.7849
▁contingent	-11.7849
▁mahal	-11.7849
▁softball	-11.7849
▁ridge	-11.7849
▁diva	-11.7849
lc	-11.785
▁brook	-11.785
▁sanders	-11.7851
▁satisfaction	-11.7851
▁neutral	-11.7851
▁reliable	-11.7852
▁unofficial	-11.7853
▁multiplex	-11.7853
▁wolves	-11.7853
▁sweeten	-11.7854
▁deliberately	-11.7854
▁lama	-11.7855
▁vw	-11.7855
rnett	-11.7855
ikk	-11.7855
▁satisfied	-11.7856
▁couch	-11.7857
▁informal	-11.7857
softbank	-11.7858
▁properly	-11.7859
▁santos	-11.786
▁bcci	-11.786
▁moral	-11.786
boy	-11.7861
▁slapped	-11.7861
▁mesh	-11.7863
▁salesforce	-11.7863
▁101	-11.7865
gett	-11.7865
▁martial	-11.7867
▁retailing	-11.7872
▁mn	-11.7872
▁keys	-11.7874
▁biz	-11.7876
hall	-11.7878
zeri	-11.7879
rstadt	-11.7881
▁achievement	-11.7881
▁airstrike	-11.7881
▁stockpile	-11.7882
▁sensor	-11.7882
▁davidson	-11.7882
▁retained	-11.7883
▁contribution	-11.7884
▁circulating	-11.7884
▁recommendation	-11.7885
▁define	-11.7885
▁flushing	-11.7885
cla	-11.7887
▁bangladeshi	-11.7888
▁impressed	-11.7888
▁9-	-11.789
▁spammer	-11.7892
▁surprises	-11.7894
iki	-11.7895
▁projection	-11.7904
▁spurn	-11.7905
▁archaeologists	-11.7905
▁zo	-11.7907
▁4.0	-11.7907
tc	-11.791
▁mari	-11.7912
▁donations	-11.7914
▁sticks	-11.7917
▁speakers	-11.7919
▁heir	-11.792
▁nit	-11.7921
▁advertisements	-11.7924
▁examin	-11.7926
▁guid	-11.7927
▁balanced	-11.7929
34	-11.7932
cher	-11.7932
ws	-11.7934
▁defendants	-11.7939
▁accuser	-11.7941
▁fare	-11.7943
▁surfing	-11.7943
▁grants	-11.7944
olu	-11.7947
▁slate	-11.795
▁(5)	-11.7951
▁rarely	-11.7952
allied	-11.7954
▁mello	-11.7954
▁isps	-11.7958
▁magnet	-11.7959
▁converted	-11.7959
▁114	-11.7965
▁farms	-11.7965
▁41-	-11.7966
▁checked	-11.7969
▁bur	-11.7969
▁experienc	-11.7972
▁operates	-11.7977
-27	-11.7981
▁overturned	-11.7982
▁hotly	-11.7985
oct	-11.7985
▁howe	-11.7986
▁talented	-11.7988
▁protester	-11.7988
▁knowing	-11.7991
ati	-11.7992
has	-11.7994
▁jab	-11.7997
▁nickel	-11.7997
ranging	-11.8001
best	-11.8003
▁stabb	-11.8007
▁flip	-11.8008
▁amr	-11.801
▁tend	-11.8015
rey	-11.802
city	-11.8022
▁deport	-11.8026
lated	-11.8027
ili	-11.8029
times	-11.8029
alai	-11.8033
▁bidders	-11.8036
sistani	-11.8041
▁ahma	-11.8042
trading	-11.8042
blue	-11.8042
master	-11.8045
▁contributions	-11.8046
building	-11.8053
▁kin	-11.8057
▁conservatives	-11.8059
▁exact	-11.8067
▁dismantle	-11.8074
▁walls	-11.8074
▁chronic	-11.8076
▁diversifi	-11.8076
▁receivers	-11.8076
▁inspect	-11.8077
▁exhibit	-11.8078
▁humiliat	-11.8079
▁participati	-11.808
egrity	-11.808
▁connectivity	-11.808
▁equestrian	-11.808
▁explicit	-11.808
▁helsinki	-11.808
▁influenza	-11.808
▁intrusion	-11.808
▁istanbul	-11.808
▁mallorca	-11.808
▁mcgahee	-11.808
▁mubarak	-11.808
▁odyssey	-11.808
▁substitute	-11.808
▁thrive	-11.808
▁ashcroft	-11.808
▁dixon	-11.808
▁enact	-11.808
▁satisfy	-11.808
▁bettman	-11.808
▁registry	-11.808
▁stefan	-11.808
▁shearer	-11.808
▁wrongdoing	-11.808
▁guidelines	-11.808
▁travis	-11.808
▁rigged	-11.808
▁murray	-11.808
▁priorities	-11.808
▁holtz	-11.808
▁halloween	-11.8081
▁tunes	-11.8081
▁francona	-11.8081
▁excitement	-11.8081
▁lagos	-11.8081
▁virtualization	-11.8081
pass	-11.8082
▁diana	-11.8082
▁waltham	-11.8083
▁trent	-11.8083
▁coleman	-11.8084
▁1918	-11.8084
▁felony	-11.8085
▁intruder	-11.8086
▁justify	-11.809
lips	-11.8093
▁reid	-11.8095
▁connor	-11.8097
▁expire	-11.8098
uce	-11.8099
▁backward	-11.81
▁touches	-11.8101
▁dire	-11.8102
▁substantially	-11.8102
▁kidde	-11.8103
▁plugged	-11.8103
▁conclude	-11.8104
▁criticised	-11.8105
▁kuwaiti	-11.8105
▁kidnappings	-11.8106
▁moody	-11.8107
▁hoo	-11.8107
▁transferr	-11.811
▁snag	-11.811
▁cave	-11.8115
▁venue	-11.8119
▁obstacle	-11.8119
▁sectors	-11.812
▁newcomer	-11.8121
▁cardinal	-11.8121
▁motorsport	-11.8121
erial	-11.8123
▁jos	-11.8123
eye	-11.8126
▁conditional	-11.8128
▁lag	-11.8133
▁captur	-11.8135
▁dumping	-11.8139
▁shame	-11.8141
-1/2	-11.8142
▁toppled	-11.8143
▁3.3	-11.8153
lyn	-11.8159
korean	-11.8162
▁swatch	-11.8164
▁nukes	-11.8182
aka	-11.8185
tex	-11.8185
▁settler	-11.8187
▁rebuilding	-11.8195
▁brin	-11.8202
itar	-11.8206
▁popp	-11.8208
wear	-11.821
▁spectators	-11.8211
wick	-11.8217
▁washed	-11.8217
▁crashing	-11.8218
▁jona	-11.8222
▁4.5	-11.8223
ku	-11.8225
rod	-11.8225
▁apes	-11.823
tying	-11.8234
▁escap	-11.8235
▁sgi	-11.8237
istan	-11.824
▁rainy	-11.8242
▁adv	-11.8254
rant	-11.8254
direct	-11.8255
▁fier	-11.8266
shirt	-11.8275
wealth	-11.828
canada	-11.828
▁designers	-11.8281
irish	-11.8282
wash	-11.8283
▁purposes	-11.8286
▁volumes	-11.8287
ranking	-11.8288
order	-11.8289
▁condo	-11.8294
▁edt	-11.8295
▁assassinate	-11.8297
ike	-11.8298
▁croatia	-11.8303
▁gal	-11.8305
▁valve	-11.8305
▁witnessed	-11.8307
▁announcements	-11.8308
▁sons	-11.8312
▁prohibit	-11.8315
▁routing	-11.8317
rocco	-11.8318
▁caterpillar	-11.8318
▁federated	-11.8318
▁garner	-11.8318
▁genuine	-11.8318
▁martnez	-11.8318
▁merchandise	-11.8318
▁monument	-11.8318
▁protein	-11.8318
▁purchasing	-11.8318
▁radioactive	-11.8318
▁scenario	-11.8318
▁stamford	-11.8318
▁uruguay	-11.8318
▁vazquez	-11.8318
▁watson	-11.8318
▁exxon	-11.8318
▁latter	-11.8318
▁unisys	-11.8318
▁arbitrator	-11.8318
▁argos	-11.8318
▁bellamy	-11.8318
▁owl	-11.8318
▁proxy	-11.8318
▁bloodshed	-11.8318
▁prague	-11.8318
▁seizure	-11.8318
▁celesti	-11.8318
tom	-11.8318
▁integrity	-11.8318
▁prudent	-11.8318
▁recreation	-11.8318
▁sergeant	-11.8319
▁leonid	-11.8319
▁domination	-11.832
▁barney	-11.8321
▁cpu	-11.8321
▁downer	-11.8321
▁clothes	-11.8321
▁treasurer	-11.8322
human	-11.8322
▁background	-11.8322
▁everett	-11.8322
▁groin	-11.8323
▁deporti	-11.8323
▁yemeni	-11.8324
▁laos	-11.8324
▁mediator	-11.8325
▁dragon	-11.8326
ene	-11.8326
▁mercy	-11.8328
▁8-3	-11.8328
▁depleted	-11.8328
▁bowling	-11.8329
▁ordeal	-11.8334
▁naga	-11.8339
▁invented	-11.8341
iya	-11.8341
▁photography	-11.8342
▁swapp	-11.8346
▁partially	-11.8348
▁naming	-11.835
▁basel	-11.8353
▁item	-11.8355
▁exchanges	-11.8357
77	-11.8358
pointer	-11.8358
▁bidder	-11.8365
▁corn	-11.8366
▁legs	-11.8367
▁viewed	-11.8368
▁wheat	-11.8369
▁fingers	-11.837
▁propos	-11.837
oz	-11.8371
oni	-11.8371
▁raft	-11.8372
▁vincen	-11.8374
▁philly	-11.8375
▁mcd	-11.8378
utu	-11.8381
▁noticed	-11.839
▁lineman	-11.8391
▁concerning	-11.8391
▁disappeared	-11.8391
kh	-11.8392
lit	-11.8396
▁hinge	-11.8397
▁mot	-11.8403
▁ut	-11.8404
table	-11.8405
▁ante	-11.8406
▁clip	-11.8406
▁flames	-11.8411
▁750	-11.8414
▁loves	-11.8416
▁sellers	-11.8418
▁apiece	-11.8419
▁$2.6	-11.8427
rk	-11.8428
max	-11.8433
▁2.9	-11.8433
▁$3.5	-11.8438
ker	-11.8439
▁beache	-11.8439
▁fur	-11.8446
▁expell	-11.8447
▁endless	-11.8449
▁floating	-11.8451
41	-11.8458
▁dup	-11.8459
▁requests	-11.8461
▁treatments	-11.8462
vote	-11.8465
nson	-11.8468
curry	-11.8469
▁publish	-11.847
▁indoor	-11.847
▁objects	-11.8473
dale	-11.8487
oh	-11.8492
date	-11.8496
▁lend	-11.8497
zz	-11.8498
▁parker	-11.8499
▁$7.	-11.8499
▁voiced	-11.8501
▁disasters	-11.8504
▁shatter	-11.8512
ire	-11.8512
▁ann	-11.8515
brook	-11.8523
second	-11.8524
secure	-11.8524
proof	-11.8526
▁trimm	-11.8529
▁occur	-11.853
▁shrink	-11.8547
▁macedonia	-11.8547
▁elder	-11.855
▁tur	-11.8552
▁hood	-11.8559
▁shelters	-11.856
▁chunk	-11.8562
▁compensate	-11.8562
▁concussion	-11.8562
▁erdogan	-11.8562
▁gunbattle	-11.8562
▁principal	-11.8562
▁religion	-11.8562
▁repurchase	-11.8562
▁resumption	-11.8562
▁reynolds	-11.8562
▁skyrocket	-11.8562
▁thrust	-11.8562
▁twickenham	-11.8562
▁voluntarily	-11.8562
▁douglas	-11.8562
▁spadea	-11.8562
▁lodge	-11.8562
▁uconn	-11.8562
▁thunder	-11.8562
▁akron	-11.8562
▁placing	-11.8562
▁attendance	-11.8563
▁humble	-11.8563
▁kirkuk	-11.8563
▁easyjet	-11.8563
▁$8.8	-11.8563
▁ricard	-11.8563
▁belonging	-11.8563
▁automation	-11.8564
▁$430	-11.8564
▁sammy	-11.8564
▁darkness	-11.8565
▁stoppage	-11.8565
▁brees	-11.8565
▁kosovo	-11.8566
▁bonuses	-11.8566
▁depress	-11.8567
▁mineral	-11.8567
▁subdued	-11.8568
▁packs	-11.8568
▁penal	-11.8569
▁0.4	-11.857
▁sullivan	-11.857
▁3500	-11.857
▁torch	-11.8571
▁accountant	-11.8572
▁'04	-11.8573
▁barber	-11.8573
▁leaderboard	-11.8574
▁eco	-11.8575
▁mus	-11.8576
▁locks	-11.8582
▁greenback	-11.8583
aki	-11.8584
▁rud	-11.8586
▁shaking	-11.8587
▁publicity	-11.8588
daunte	-11.8589
▁elan	-11.8592
▁poly	-11.8593
▁scal	-11.8594
▁nasd	-11.8595
▁wealthy	-11.8596
▁gps	-11.8597
▁judg	-11.8598
▁relieve	-11.8605
tarian	-11.8607
▁comm	-11.861
biological	-11.861
▁kon	-11.8611
▁extremist	-11.8614
tton	-11.8618
▁prediction	-11.8618
▁sparta	-11.8618
habi	-11.8621
▁insects	-11.8624
filled	-11.8627
▁enabl	-11.8629
▁tail	-11.8639
▁mystics	-11.8639
▁pigs	-11.8639
▁bash	-11.8642
▁lining	-11.8642
ggle	-11.8644
▁offences	-11.8649
▁digg	-11.865
▁ruler	-11.8652
▁31-	-11.8653
▁dashed	-11.8659
▁coat	-11.866
▁fisher	-11.8663
▁pla	-11.8665
▁examined	-11.8665
▁customiz	-11.8673
▁airliner	-11.8674
▁jewel	-11.8674
▁mcc	-11.8677
▁controller	-11.8678
▁earning	-11.8678
series	-11.8692
▁thinn	-11.8692
elli	-11.8698
▁router	-11.8698
▁fade	-11.8699
▁techniques	-11.87
nu	-11.8703
:05	-11.8703
▁rad	-11.8705
▁ranch	-11.8707
▁whit	-11.8709
▁speculat	-11.8711
ich	-11.8713
▁magna	-11.8713
story	-11.8715
▁gore	-11.8728
▁deck	-11.8731
▁screening	-11.8732
35	-11.8733
tria	-11.8741
amount	-11.8743
▁500000	-11.8746
pie	-11.8747
▁borrow	-11.8748
▁foil	-11.8763
▁respected	-11.8766
▁tra	-11.8768
disk	-11.8774
barrel	-11.8774
chief	-11.8774
country	-11.8774
▁2500	-11.8783
agging	-11.8783
03	-11.8785
▁presid	-11.8796
▁11:	-11.8797
▁2.1	-11.8797
▁bogey	-11.8812
▁cemex	-11.8812
▁composite	-11.8812
▁decapitated	-11.8812
▁implications	-11.8812
▁inadequate	-11.8812
▁legislature	-11.8812
▁lieutenant	-11.8812
▁rosenborg	-11.8812
▁schalke	-11.8812
▁smuggling	-11.8812
▁oecd	-11.8812
▁santini	-11.8812
▁terps	-11.8812
▁quinn	-11.8812
▁martinsville	-11.8812
▁skating	-11.8812
▁capitol	-11.8812
▁jews	-11.8812
▁hartford	-11.8812
▁default	-11.8812
▁hicks	-11.8812
▁cattle	-11.8812
▁configuration	-11.8812
▁chuck	-11.8812
▁erik	-11.8813
▁simulator	-11.8813
▁memorabl	-11.8813
▁niger	-11.8813
▁probation	-11.8813
▁milton	-11.8813
▁tripoli	-11.8813
▁beaver	-11.8813
▁opel	-11.8813
▁endorsement	-11.8814
▁somewhere	-11.8814
▁excessive	-11.8814
tar	-11.8814
▁barnes	-11.8815
▁neill	-11.8817
▁creep	-11.8817
▁okla	-11.8817
▁saks	-11.8819
▁incorporate	-11.8819
▁difficulties	-11.8819
▁crazy	-11.8819
epid	-11.882
▁vcr	-11.8821
▁springs	-11.8821
▁wishes	-11.8822
▁sierra	-11.8822
▁prolong	-11.8823
▁advised	-11.8824
▁deem	-11.8826
▁noble	-11.8827
▁sensational	-11.8827
▁billing	-11.8827
▁macedonian	-11.8828
licia	-11.8828
byte	-11.8831
-28	-11.8832
fo	-11.8833
▁accomplished	-11.8836
▁kane	-11.884
▁0.5	-11.8841
afx	-11.8843
▁$42	-11.8846
▁legally	-11.8847
vy	-11.8848
▁tasks	-11.8848
seat	-11.8849
▁bore	-11.885
▁laurent	-11.8851
mian	-11.8851
uz	-11.8853
▁swings	-11.8856
▁anne	-11.8865
▁shorten	-11.8865
▁mard	-11.8866
▁refiner	-11.8866
▁manner	-11.8868
▁consultant	-11.8869
▁geo	-11.8869
▁pleas	-11.887
▁lenn	-11.8871
▁porter	-11.8874
▁plain	-11.8874
bach	-11.8874
ddy	-11.8875
▁oliver	-11.8878
▁scrapped	-11.8878
now	-11.8879
▁morale	-11.888
elon	-11.8887
▁punter	-11.89
▁microprocessors	-11.8902
▁weakening	-11.8902
▁$36	-11.8903
▁kicking	-11.8906
▁jitters	-11.8907
▁smarter	-11.8909
stat	-11.8913
▁brewing	-11.8913
▁sharper	-11.8919
een	-11.8922
bbi	-11.8925
▁julian	-11.8933
▁proven	-11.8933
▁concentrate	-11.8937
hir	-11.8937
aol	-11.8941
600	-11.8946
6.5	-11.8949
▁batt	-11.8954
▁bre	-11.8956
cham	-11.8963
▁pinn	-11.8964
▁amend	-11.8965
▁marv	-11.8966
▁hank	-11.8968
▁cio	-11.8974
▁booster	-11.8974
sell	-11.8975
▁guests	-11.8979
▁impo	-11.8982
▁washing	-11.8987
▁clinche	-11.8989
tiana	-11.8998
▁pic	-11.8999
▁jel	-11.9001
untle	-11.901
gr	-11.9011
▁wally	-11.9011
▁horses	-11.9013
▁loom	-11.9014
▁mortars	-11.902
▁wang	-11.9027
tier	-11.9028
profit	-11.9029
▁sensors	-11.903
own	-11.9033
▁defie	-11.9034
▁dart	-11.9043
▁$60	-11.9047
▁heartbreak	-11.905
▁sensation	-11.9053
▁trou	-11.9053
ii	-11.9054
western	-11.9059
▁occasion	-11.9065
▁administrati	-11.9065
▁dispos	-11.9065
▁possess	-11.9066
▁assume	-11.9067
▁exhaust	-11.9067
mil	-11.9068
▁abdul	-11.9068
fertility	-11.9068
▁enthusiasm	-11.9068
▁fantastic	-11.9068
▁fergie	-11.9068
▁guerrouj	-11.9068
▁headscarves	-11.9068
▁knife	-11.9068
▁lakshmi	-11.9068
▁pippen	-11.9068
▁porsche	-11.9068
▁refinancing	-11.9068
▁saboteurs	-11.9068
▁tabloid	-11.9068
▁trulli	-11.9068
▁unravel	-11.9068
▁bennett	-11.9068
▁ethernet	-11.9068
▁greensboro	-11.9068
▁licence	-11.9068
▁rebate	-11.9068
▁logistics	-11.9068
▁ratify	-11.9069
gloria	-11.9069
▁hamburg	-11.9069
▁harare	-11.9069
▁libel	-11.9069
▁hoax	-11.9069
▁immunity	-11.9069
▁smiling	-11.9069
▁9.0	-11.9069
▁loyalty	-11.9069
▁obstruction	-11.9069
▁transmit	-11.907
▁awake	-11.907
▁trafficking	-11.907
▁vacan	-11.9071
▁impression	-11.9071
distant	-11.9071
▁wbc	-11.9071
▁homestead	-11.9071
▁pleasant	-11.9072
▁'05	-11.9072
▁fitness	-11.9072
▁proper	-11.9072
▁sheep	-11.9073
▁barca	-11.9074
▁leftwich	-11.9075
aib	-11.9076
▁tragic	-11.9079
▁hampton	-11.908
catel	-11.908
▁shores	-11.9082
▁corpses	-11.9082
▁sober	-11.9083
▁detection	-11.9083
▁daylight	-11.9084
▁2.4	-11.9084
nerable	-11.9085
▁shocking	-11.9087
▁humanity	-11.9087
fit	-11.9087
▁$140	-11.9093
▁sharpen	-11.9093
▁bj	-11.9097
kil	-11.9097
▁serbian	-11.9098
▁gill	-11.9104
far	-11.9105
▁refin	-11.9106
▁mistaken	-11.9112
▁sacks	-11.9113
chester	-11.9115
▁masses	-11.9116
lashes	-11.9116
▁expressing	-11.9124
▁mb	-11.9126
▁swimmer	-11.9132
▁signature	-11.9133
▁revision	-11.9133
▁chipsets	-11.9135
▁kr	-11.9135
▁insight	-11.9136
▁$26	-11.9137
▁rang	-11.9138
▁$75	-11.914
▁supercomputers	-11.9147
▁editors	-11.9149
yip	-11.915
▁fu	-11.9151
▁squeez	-11.9152
▁tun	-11.9154
▁biologists	-11.9155
tron	-11.9158
▁rot	-11.9164
▁freely	-11.9164
▁mil	-11.9165
▁tay	-11.9178
suf	-11.9183
▁db	-11.9185
▁champs	-11.9187
▁pep	-11.9188
▁smb	-11.919
▁babe	-11.9192
inter	-11.92
lift	-11.9204
▁arabs	-11.9204
▁streaming	-11.9205
.75	-11.9209
hyun	-11.9209
▁derailed	-11.9212
▁signall	-11.9214
▁suck	-11.9223
▁newton	-11.9223
▁reed	-11.923
▁grove	-11.923
▁solan	-11.9235
▁$1.6	-11.9235
ology	-11.9236
▁wallets	-11.924
▁unh	-11.924
ager	-11.9251
▁kiss	-11.9251
▁minors	-11.9261
arity	-11.9266
▁overheat	-11.9267
▁vent	-11.9268
stop	-11.9268
▁scans	-11.9269
itch	-11.9269
you	-11.927
▁106	-11.927
▁evaluat	-11.9271
uba	-11.9276
▁happening	-11.9277
▁enabled	-11.928
▁hurts	-11.9283
strom	-11.9284
▁underlin	-11.9288
may	-11.9293
language	-11.9293
december	-11.9293
▁bor	-11.9295
▁projections	-11.9295
flying	-11.9296
▁ringing	-11.9299
▁140	-11.9303
5000	-11.9303
tail	-11.931
nnie	-11.9311
▁clerics	-11.9312
▁queue	-11.9315
▁laps	-11.932
▁speeding	-11.9321
kill	-11.9322
▁burge	-11.9322
▁chambers	-11.9323
▁reductions	-11.9325
ntech	-11.9327
att	-11.9329
▁welsh	-11.9329
▁kirk	-11.933
▁ghana	-11.9331
▁ubiquit	-11.9332
▁staunch	-11.9332
▁unfortunate	-11.9332
▁episode	-11.9332
▁floridians	-11.9332
▁froogle	-11.9332
▁gbagbo	-11.9332
▁gonzale	-11.9332
▁improbable	-11.9332
▁indigenous	-11.9332
▁ivorian	-11.9332
▁laureate	-11.9332
▁literally	-11.9332
▁misconduct	-11.9332
▁nicaragua	-11.9332
▁outweigh	-11.9332
▁propulsion	-11.9332
▁raleigh	-11.9332
▁sarkozy	-11.9332
▁chassis	-11.9332
▁namibia	-11.9332
▁kroger	-11.9332
▁enlarge	-11.9332
▁zombie	-11.9332
▁polio	-11.9332
▁marque	-11.9332
▁zemin	-11.9332
▁snack	-11.9332
▁compelling	-11.9332
▁clough	-11.9332
▁riggs	-11.9332
▁embarrassment	-11.9332
▁cornell	-11.9332
▁woodgate	-11.9332
▁courtesy	-11.9332
▁feb	-11.9332
▁rojo	-11.9332
▁neil	-11.9332
▁slick	-11.9332
▁riley	-11.9332
▁insult	-11.9333
▁montana	-11.9333
▁jiri	-11.9333
▁transformation	-11.9333
▁psychological	-11.9333
▁cliff	-11.9333
▁writedown	-11.9334
▁frederic	-11.9334
▁vene	-11.9334
▁gunship	-11.9335
▁toledo	-11.9335
▁blunt	-11.9335
▁gunpoint	-11.9335
aylor	-11.9335
gigabyte	-11.9336
▁gsm	-11.9336
▁gilles	-11.9336
▁georgetown	-11.9336
▁reversal	-11.9337
▁outspoken	-11.9337
▁rewrite	-11.9338
kkd	-11.9338
▁gem	-11.9338
fusion	-11.9339
▁commuter	-11.9339
▁michelin	-11.9339
verish	-11.9339
▁deliveries	-11.934
▁madden	-11.9342
▁thriller	-11.9342
▁examination	-11.9342
▁zee	-11.9343
▁fist	-11.9345
▁$2.5	-11.9347
▁yourself	-11.9349
▁catche	-11.9356
▁tr	-11.9357
▁midland	-11.9359
▁antarctica	-11.936
stro	-11.9362
▁intercepted	-11.9366
▁hare	-11.9367
duct	-11.937
▁unleash	-11.937
nascent	-11.9371
▁improperly	-11.9372
▁dub	-11.9375
▁combin	-11.9378
usa	-11.9379
▁char	-11.9382
▁finest	-11.9386
eau	-11.939
south	-11.9393
▁acer	-11.9395
▁guides	-11.9395
▁pub	-11.9397
▁prop	-11.9397
▁1986	-11.9399
rick	-11.9399
▁dinosaurs	-11.94
▁terminal	-11.9401
▁filipino	-11.9401
▁blueprint	-11.9402
▁06	-11.9402
▁boast	-11.9403
▁revelations	-11.9404
▁25000	-11.9405
texa	-11.9406
▁suv	-11.9408
▁chants	-11.9413
▁egg	-11.9413
▁6.0	-11.9413
▁107	-11.9415
▁colon	-11.942
▁ash	-11.9421
▁coo	-11.943
▁fairly	-11.943
placed	-11.9432
▁menu	-11.9433
▁restricted	-11.9435
pd	-11.9436
▁organiser	-11.9436
▁resembl	-11.9437
quari	-11.9438
▁deadlocked	-11.944
▁probable	-11.9443
cm	-11.9443
▁pockets	-11.9448
elect	-11.945
▁briefing	-11.9454
▁emails	-11.9455
▁floated	-11.9455
▁wheels	-11.9455
turn	-11.9456
▁(12	-11.9457
▁figured	-11.946
165	-11.9462
▁peres	-11.9465
▁113	-11.9488
▁populations	-11.949
▁boats	-11.9497
rad	-11.95
backs	-11.9507
▁mend	-11.9519
mus	-11.9533
▁explained	-11.9534
▁tent	-11.9535
▁govern	-11.9536
sses	-11.9536
08	-11.9538
▁qua	-11.954
▁$450	-11.9541
▁favorites	-11.9544
orge	-11.9545
▁voices	-11.9549
▁bot	-11.9554
sey	-11.9555
base	-11.9555
▁obstacles	-11.9556
kit	-11.956
▁sche	-11.9561
guard	-11.9562
stream	-11.9562
competitive	-11.9563
brew	-11.9563
plague	-11.9563
shift	-11.9564
grove	-11.9564
define	-11.9564
▁novo	-11.9567
▁vari	-11.9569
▁lied	-11.9571
▁trader	-11.9571
▁alh	-11.9571
▁persia	-11.9571
▁refunds	-11.9573
fare	-11.9574
logic	-11.958
▁sigh	-11.9583
ditch	-11.9585
▁italia	-11.9587
▁coordinate	-11.9587
▁photographers	-11.9589
▁inaugurate	-11.9589
▁aces	-11.959
▁snub	-11.9591
▁mum	-11.9591
▁ronald	-11.9593
▁opinions	-11.9594
▁rode	-11.9595
▁clan	-11.9598
▁smuggle	-11.9601
▁anchor	-11.9601
▁alzheimer	-11.9602
▁anonymity	-11.9602
▁attribut	-11.9602
▁camcorder	-11.9602
▁catalyst	-11.9602
▁circumstances	-11.9602
▁diabetes	-11.9602
▁dravid	-11.9602
▁emphatic	-11.9602
▁entitled	-11.9602
▁fugitive	-11.9602
▁kendall	-11.9602
▁larkin	-11.9602
▁leverkusen	-11.9602
▁lincoln	-11.9602
▁marseille	-11.9602
▁matsui	-11.9602
▁pasadena	-11.9602
▁recognise	-11.9602
▁remnants	-11.9602
▁terdiman	-11.9602
▁turnpike	-11.9602
▁alpine	-11.9602
▁mercedes	-11.9602
▁miserable	-11.9602
▁unified	-11.9602
▁unharmed	-11.9602
▁sacred	-11.9602
▁nader	-11.9602
▁ailment	-11.9602
▁freight	-11.9602
▁mosley	-11.9602
▁artisan	-11.9602
▁mizu	-11.9602
▁verbal	-11.9602
▁marbury	-11.9602
▁liability	-11.9602
ampling	-11.9603
▁nlcs	-11.9603
▁epson	-11.9603
▁photoshop	-11.9603
▁contentguard	-11.9603
▁$9.2	-11.9603
▁goodwill	-11.9603
▁anybody	-11.9603
▁$7.4	-11.9603
▁restatement	-11.9604
▁monza	-11.9604
▁waterford	-11.9605
▁establishment	-11.9605
▁scour	-11.9605
▁marry	-11.9606
▁wellington	-11.9606
▁wheaton	-11.9606
klm	-11.9607
▁portis	-11.9608
▁28000	-11.961
tie	-11.9611
▁holland	-11.9611
▁outdoor	-11.9611
▁gravity	-11.9614
▁claw	-11.9614
▁infonet	-11.9615
▁tiebreak	-11.962
▁protestant	-11.962
▁dl	-11.9622
▁wm	-11.9625
▁duck	-11.9626
▁expired	-11.9627
imf	-11.9628
▁nomar	-11.9628
wto	-11.963
▁analog	-11.963
▁joel	-11.963
▁7.2	-11.9631
▁loosen	-11.9633
▁procedures	-11.9634
▁logo	-11.9638
▁permanently	-11.9642
▁ruth	-11.9644
▁8000	-11.9645
late	-11.9645
▁buzzer	-11.9648
▁legislators	-11.9649
21	-11.9652
▁amman	-11.9657
▁tenth	-11.9657
▁robbi	-11.9658
▁memos	-11.966
57	-11.9661
ole	-11.9668
▁judo	-11.967
▁forged	-11.9672
▁rigging	-11.9676
▁ipods	-11.9677
▁pattern	-11.968
▁transistor	-11.9684
▁quadruple	-11.9686
▁jackets	-11.9688
▁34-	-11.9689
▁weary	-11.969
▁louise	-11.969
▁stalls	-11.9691
▁suggestion	-11.9691
part	-11.9691
▁observ	-11.9693
▁42-	-11.9694
▁prayer	-11.9694
angled	-11.9697
▁discusse	-11.9703
▁decrease	-11.971
minded	-11.9713
▁tremors	-11.9715
▁rower	-11.972
▁motive	-11.9722
▁125	-11.9726
▁12:	-11.9729
tun	-11.9731
main	-11.974
ister	-11.9741
sec	-11.9745
▁bori	-11.9746
ada	-11.9748
▁gripp	-11.9754
var	-11.9759
▁kost	-11.9759
plan	-11.976
▁peg	-11.9761
▁terr	-11.9765
▁320	-11.9767
▁healthday	-11.9769
▁wag	-11.9769
▁nominate	-11.9776
▁databases	-11.9782
tung	-11.9782
usan	-11.9789
▁positioning	-11.98
▁inks	-11.9802
▁teach	-11.9811
cia	-11.9815
▁bla	-11.9818
pointers	-11.9818
▁descend	-11.9822
▁trades	-11.9824
▁$2.2	-11.9824
▁yard	-11.9825
▁bn	-11.9829
▁uncover	-11.9831
▁230	-11.9832
▁fulfill	-11.9835
operation	-11.9836
▁spr	-11.9836
group	-11.9837
megapixel	-11.984
swappers	-11.9841
november	-11.9841
internet	-11.9842
▁lav	-11.9843
israeli	-11.9843
medal	-11.9845
▁rat	-11.9845
▁dynam	-11.9847
sept	-11.9848
block	-11.9851
australian	-11.9854
wave	-11.9862
jet	-11.9865
stage	-11.9866
▁muscles	-11.9867
▁actual	-11.9868
lcd	-11.9868
▁honors	-11.987
gie	-11.9877
▁careful	-11.9878
▁irregular	-11.9879
▁bahrain	-11.988
▁cancellation	-11.988
▁cosmonaut	-11.988
▁elaborate	-11.988
▁embassies	-11.988
▁enormous	-11.988
▁gainesville	-11.988
▁inactive	-11.988
▁literature	-11.988
▁mclaren	-11.988
▁mcnealy	-11.988
▁neglect	-11.988
▁ogden	-11.988
▁peirsol	-11.988
▁perspective	-11.988
▁stubborn	-11.988
▁unacceptable	-11.988
▁varitek	-11.988
▁bextra	-11.988
▁demise	-11.988
▁swallow	-11.988
▁cnnfn	-11.988
▁jenin	-11.988
▁triathlon	-11.988
▁bacteria	-11.988
▁twel	-11.988
▁malaria	-11.988
▁1993	-11.988
▁cardiov	-11.988
▁vacancy	-11.988
▁pdf	-11.988
▁alamos	-11.988
▁norwich	-11.988
▁slogan	-11.988
▁bladecenter	-11.988
▁hurry	-11.988
▁umass	-11.9881
▁random	-11.9881
▁depression	-11.9881
▁scoreboard	-11.9882
▁distraction	-11.9882
▁regiment	-11.9882
▁$320	-11.9883
▁clout	-11.9883
▁7-0	-11.9883
▁cholesterol	-11.9883
▁flatten	-11.9884
▁uae	-11.9884
▁deaf	-11.9884
▁compatibility	-11.9885
▁mtv	-11.9885
▁communicate	-11.9885
▁marad	-11.9885
▁chronicle	-11.9885
▁holyfield	-11.9886
▁atlas	-11.9887
▁owed	-11.9889
▁consum	-11.9889
▁2.6	-11.989
▁merit	-11.989
▁sniff	-11.989
▁zimbabwean	-11.9893
▁tainted	-11.9894
▁vpn	-11.9894
iko	-11.9895
▁dismay	-11.9897
worker	-11.9902
▁ringers	-11.9903
▁populat	-11.9904
▁idf	-11.9904
▁provinces	-11.9905
kyodo	-11.9905
▁marco	-11.9906
▁pearl	-11.9906
▁textiles	-11.9907
▁bumpy	-11.9908
▁newmont	-11.9908
▁burk	-11.9908
▁logging	-11.9908
liant	-11.991
▁overwhelmed	-11.9911
▁donate	-11.9912
▁braze	-11.9913
▁sooner	-11.9914
▁proct	-11.9921
▁demonstrations	-11.9924
▁banco	-11.9925
▁maps	-11.9931
nvironmentalists	-11.9932
▁assistants	-11.9932
▁taxpayers	-11.9934
▁descended	-11.9934
lane	-11.9935
▁stirring	-11.9935
▁flowing	-11.9936
fest	-11.9944
▁bottl	-11.9946
▁seasonal	-11.9949
nnes	-11.9949
▁expression	-11.995
loaded	-11.995
▁mentioned	-11.9951
▁institution	-11.9956
▁grenades	-11.9963
▁destination	-11.9965
▁enforce	-11.9965
▁detainee	-11.9968
tronic	-11.9969
▁suspicions	-11.9969
▁taunt	-11.9979
▁regularly	-11.9983
lpid	-11.9984
▁uni	-11.9985
▁91	-11.9986
▁campaigners	-11.9987
▁sacking	-11.9988
▁bits	-11.999
▁seas	-11.999
▁bragg	-11.9995
▁scorer	-12
▁captives	-12.0003
▁33-	-12.0004
yan	-12.0008
eva	-12.0009
[...]
